{
  "version": "1.0",
  "truncation": null,
  "padding": null,
  "added_tokens": [
    {
      "id": 0,
      "content": "<unk>",
      "single_word": false,
      "lstrip": false,
      "rstrip": false,
      "normalized": false,
      "special": true
    },
    {
      "id": 1,
      "content": "<pad>",
      "single_word": false,
      "lstrip": false,
      "rstrip": false,
      "normalized": false,
      "special": true
    },
    {
      "id": 2,
      "content": "<bos>",
      "single_word": false,
      "lstrip": false,
      "rstrip": false,
      "normalized": false,
      "special": true
    },
    {
      "id": 3,
      "content": "<eos>",
      "single_word": false,
      "lstrip": false,
      "rstrip": false,
      "normalized": false,
      "special": true
    }
  ],
  "normalizer": null,
  "pre_tokenizer": {
    "type": "ByteLevel",
    "add_prefix_space": true,
    "trim_offsets": true,
    "use_regex": true
  },
  "post_processor": {
    "type": "TemplateProcessing",
    "single": [
      {
        "SpecialToken": {
          "id": "<bos>",
          "type_id": 0
        }
      },
      {
        "Sequence": {
          "id": "A",
          "type_id": 0
        }
      },
      {
        "SpecialToken": {
          "id": "<eos>",
          "type_id": 0
        }
      }
    ],
    "pair": [
      {
        "SpecialToken": {
          "id": "<bos>",
          "type_id": 0
        }
      },
      {
        "Sequence": {
          "id": "A",
          "type_id": 0
        }
      },
      {
        "SpecialToken": {
          "id": "<eos>",
          "type_id": 0
        }
      },
      {
        "SpecialToken": {
          "id": "<bos>",
          "type_id": 0
        }
      },
      {
        "Sequence": {
          "id": "B",
          "type_id": 0
        }
      },
      {
        "SpecialToken": {
          "id": "<eos>",
          "type_id": 0
        }
      }
    ],
    "special_tokens": {
      "<bos>": {
        "id": "<bos>",
        "ids": [
          2
        ],
        "tokens": [
          "<bos>"
        ]
      },
      "<eos>": {
        "id": "<eos>",
        "ids": [
          3
        ],
        "tokens": [
          "<eos>"
        ]
      }
    }
  },
  "decoder": {
    "type": "ByteLevel",
    "add_prefix_space": true,
    "trim_offsets": true,
    "use_regex": true
  },
  "model": {
    "type": "BPE",
    "dropout": null,
    "unk_token": "<unk>",
    "continuing_subword_prefix": null,
    "end_of_word_suffix": null,
    "fuse_unk": false,
    "byte_fallback": false,
    "ignore_merges": false,
    "vocab": {
      "<unk>": 0,
      "<pad>": 1,
      "<bos>": 2,
      "<eos>": 3,
      "!": 4,
      "\"": 5,
      "#": 6,
      "%": 7,
      "&": 8,
      "'": 9,
      "(": 10,
      ")": 11,
      "*": 12,
      "+": 13,
      ",": 14,
      "-": 15,
      ".": 16,
      "/": 17,
      "0": 18,
      "1": 19,
      "2": 20,
      "3": 21,
      "4": 22,
      "5": 23,
      "6": 24,
      "7": 25,
      "8": 26,
      "9": 27,
      ":": 28,
      ";": 29,
      "<": 30,
      "=": 31,
      ">": 32,
      "?": 33,
      "[": 34,
      "\\": 35,
      "]": 36,
      "^": 37,
      "`": 38,
      "{": 39,
      "|": 40,
      "}": 41,
      "~": 42,
      "¡": 43,
      "¢": 44,
      "£": 45,
      "¤": 46,
      "¥": 47,
      "¦": 48,
      "§": 49,
      "¨": 50,
      "©": 51,
      "ª": 52,
      "«": 53,
      "¬": 54,
      "®": 55,
      "¯": 56,
      "°": 57,
      "±": 58,
      "²": 59,
      "³": 60,
      "´": 61,
      "µ": 62,
      "¶": 63,
      "·": 64,
      "¸": 65,
      "¹": 66,
      "º": 67,
      "»": 68,
      "¼": 69,
      "½": 70,
      "¾": 71,
      "¿": 72,
      "Â": 73,
      "Ð": 74,
      "Ñ": 75,
      "â": 76,
      "ĉ": 77,
      "Ġ": 78,
      "Ģ": 79,
      "ģ": 80,
      "Ĥ": 81,
      "ĥ": 82,
      "Ħ": 83,
      "ħ": 84,
      "Ĩ": 85,
      "ĩ": 86,
      "Ī": 87,
      "ī": 88,
      "Ĭ": 89,
      "ĭ": 90,
      "Į": 91,
      "į": 92,
      "İ": 93,
      "ı": 94,
      "Ĳ": 95,
      "ĳ": 96,
      "Ĵ": 97,
      "ĵ": 98,
      "Ķ": 99,
      "ķ": 100,
      "ĸ": 101,
      "Ĺ": 102,
      "ĺ": 103,
      "Ļ": 104,
      "ļ": 105,
      "Ľ": 106,
      "ľ": 107,
      "Ŀ": 108,
      "ŀ": 109,
      "Ł": 110,
      "ł": 111,
      "Ń": 112,
      "ĠÐ": 113,
      "Ð¾": 114,
      "Ð°": 115,
      "Ðµ": 116,
      "ÑĤ": 117,
      "Ð¸": 118,
      "Ñģ": 119,
      "Ð¾Ð": 120,
      "Ð½": 121,
      "ÑĢ": 122,
      "Ð»": 123,
      "Ñĥ": 124,
      "Ð°Ð": 125,
      "Ñı": 126,
      "ÐµÐ": 127,
      "ÑĮ": 128,
      "Ñĭ": 129,
      "ĠÑģ": 130,
      "ĠÐ¿": 131,
      "ĠÐ½": 132,
      "ĠÐ²": 133,
      "Ðº": 134,
      "Ñĩ": 135,
      "Ð²": 136,
      "Ð´": 137,
      "ĠÐ¾": 138,
      "ĠÐ¸": 139,
      "Ð¼": 140,
      "Ð°Ð»": 141,
      "ÑĤÐ¾": 142,
      "ĠÐº": 143,
      "ÑĪ": 144,
      "Ð¾Ð²": 145,
      "Ñħ": 146,
      "ÑģÑĤ": 147,
      "ÐµÐ½": 148,
      "ĠÐ´": 149,
      "ĠÐ±": 150,
      "Ð¾Ð»": 151,
      "Ġ-": 152,
      "ĠÑĤ": 153,
      "ÐµÑĢ": 154,
      "ÐµÐ»": 155,
      "³Ð¾": 156,
      "Ñİ": 157,
      "ĠÐ¼": 158,
      "Ð¾Ð¼": 159,
      "Ð¸Ð»": 160,
      "Ð½Ð¾": 161,
      "ĠÑĩ": 162,
      "ÐµÑĤ": 163,
      "Ð°Ðº": 164,
      "ĠÐ¿ÑĢ": 165,
      "ÑĥÐ": 166,
      "ÑĤÑĮ": 167,
      "ĠÐ·": 168,
      "Ð¾Ð´": 169,
      "ĠÐ½Ðµ": 170,
      "ĠÑĢ": 171,
      "Ð°Ð·": 172,
      "Ð¾Ð¹": 173,
      "Ð¸Ð": 174,
      "Ð½Ð°": 175,
      "Ð¾ÑĢ": 176,
      "ĠÐµ": 177,
      "ĠÐ½Ð°": 178,
      "Ġ--": 179,
      "ÑģÑı": 180,
      "Ð¿": 181,
      "ÐµÐ¼": 182,
      "Ð¾Ñģ": 183,
      "Ð°Ð¼": 184,
      "Ð°Ð½": 185,
      "ĠÐ³": 186,
      "ÑĨ": 187,
      "Ð°Ñģ": 188,
      "Ð½Ñĭ": 189,
      "ĠÑĥ": 190,
      "Ð°Ð²": 191,
      "Ð±": 192,
      "Ð¾ÑĤ": 193,
      "Ð¸Ð½": 194,
      "Ð·": 195,
      "ÐµÐ´": 196,
      "Ñī": 197,
      "ĠÐ»": 198,
      "Ð¸ÑĤ": 199,
      "Ð¾Ð½": 200,
      "Ð°ÑĢ": 201,
      "ĠÐ±Ñĭ": 202,
      "Ð¸Ð²": 203,
      "ĠÑĩÑĤÐ¾": 204,
      "Ð¸Ð¼": 205,
      "ĠÑ": 206,
      "Ð¾Ð³": 207,
      "âĢ": 208,
      "ÑģÐº": 209,
      "ĠÐ¶": 210,
      "Ð°ÑĤ": 211,
      "Ð°Ð´": 212,
      "ĠÐ¾ÑĤ": 213,
      "Ð¸Ðº": 214,
      "Ð°Ñı": 215,
      "Ð¹": 216,
      "ÐµÐ¹": 217,
      "Ð¾Ð±": 218,
      "ĠÐ¾Ð½": 219,
      "Ð¾Ð³Ð¾": 220,
      "Ð°ÑĤÑĮ": 221,
      "ĠÐĿ": 222,
      "ĠÑį": 223,
      "ÐµÐ²": 224,
      "ĠÑģÑĤ": 225,
      "ÑģÑĮ": 226,
      "Ð¾Ð¶": 227,
      "Ð¾Ðº": 228,
      "Ð³": 229,
      "Ð½Ñĥ": 230,
      "ĠÐºÐ°Ðº": 231,
      "ĠÐĴ": 232,
      "ĠÐŁ": 233,
      "Ð»Ð¸": 234,
      "ĠÐ¿Ð¾": 235,
      "ĠÐ²Ñĭ": 236,
      "ĠÐ²Ñģ": 237,
      "ĠÑı": 238,
      "Ð¸Ðµ": 239,
      "ÑĥÐ´": 240,
      "Ð¾Ð»ÑĮ": 241,
      "ÑĤÐ¾ÑĢ": 242,
      "Ð³Ð¾": 243,
      "ÑĥÐ¶": 244,
      "ÑģÑĤÐ²": 245,
      "ĠÑģÐº": 246,
      "Ð¸Ð´": 247,
      "ĠÐŀ": 248,
      "ĠÑħ": 249,
      "Ð¶": 250,
      "âĢ¦": 251,
      "Ð¸Ñĩ": 252,
      "ĠÐ¡": 253,
      "Ð¸Ñħ": 254,
      "ĠÑģÐ²": 255,
      "ÐµÐ·": 256,
      "ĠÐ±ÑĭÐ»": 257,
      "Ð¸Ð¹": 258,
      "ÐµÐ³Ð¾": 259,
      "ÐµÐ±": 260,
      "ĠÐ°": 261,
      "Ð»Ñı": 262,
      "ĠÐ¾Ð±": 263,
      "ÐºÐ¾": 264,
      "ÐµÐº": 265,
      "Ð°Ð»Ð°": 266,
      "ĠÐµÐ³Ð¾": 267,
      "ĠÐĲ": 268,
      "Ð¸Ñı": 269,
      "ĠÐļ": 270,
      "Ð¸ÑĤÑĮ": 271,
      "ĠÐ¿Ð¾Ð´": 272,
      "Ð°Ð¶": 273,
      "Ð¾Ð·": 274,
      "ÑĥÐ³": 275,
      "ĠÑģÐ»": 276,
      "Ð°Ð»Ð¸": 277,
      "Ð´Ð°": 278,
      "ÐµÐ¿": 279,
      "ÐµÐ»ÑĮ": 280,
      "ÐµÑģ": 281,
      "ĠÑĤÐ°Ðº": 282,
      "ÐµÑĩ": 283,
      "ÐºÐ°": 284,
      "ĠÐ¸Ð·": 285,
      "ĠÐľ": 286,
      "ĠÐ·Ð°": 287,
      "ÐµÑģÑĤ": 288,
      "ÑĢÐ°": 289,
      "ĠÐĺ": 290,
      "ÑĥÑĤ": 291,
      "ĠÐĶ": 292,
      "Ð¾Ñĩ": 293,
      "ÐµÑĪ": 294,
      "Ð°Ð¼Ð¸": 295,
      "Ð¾Ð²Ð¾ÑĢ": 296,
      "ĠÑĢÐ°Ð·": 297,
      "ĠÑįÑĤÐ¾": 298,
      "ÑĥÐ¼": 299,
      "ĠÐºÑĢ": 300,
      "Ð½Ðµ": 301,
      "Ð¸ÑĨ": 302,
      "Ð»Ð°": 303,
      "ÐµÐ½ÑĮ": 304,
      "Ð¾ÑģÑĤ": 305,
      "ĠÐ¢": 306,
      "ĠÐ²ÑģÐµ": 307,
      "ĠÑĪ": 308,
      "Ð¾Ð¿": 309,
      "ÐºÐ¸": 310,
      "ĠÑĤÐ¾": 311,
      "ÑĭÐ²": 312,
      "ĠÑįÑĤ": 313,
      "ĠÑģÐºÐ°Ð·": 314,
      "ÐµÐ¶": 315,
      "ĠÐºÐ¾": 316,
      "Ð°Ð¿": 317,
      "ÑĭÐ¹": 318,
      "Ð¸Ð·": 319,
      "Ð½ÑĭÐ¹": 320,
      "ĠÑģÐ¿": 321,
      "Ð½Ñı": 322,
      "ĠÐ¿ÐµÑĢ": 323,
      "ÑĥÑĪ": 324,
      "ĠÐ¾Ð½Ð°": 325,
      "ÐºÑĥ": 326,
      "ĠÑģÐ²Ð¾": 327,
      "Ð¾ÑĪ": 328,
      "Ð°Ð¹": 329,
      "Ð°ÑģÑĮ": 330,
      "ÑĥÑĩ": 331,
      "ĠÐ½Ð¾": 332,
      "ÑĥÐ±": 333,
      "ÑīÐµ": 334,
      "ÑĦ": 335,
      "Ð°Ð±": 336,
      "Ð½Ð¾Ð¹": 337,
      "ĠÐ¶Ðµ": 338,
      "âĢĵ": 339,
      "ÐµÐ½Ð½Ð¾": 340,
      "ÑĢÑĥÐ³": 341,
      "Ð½ÑĭÐ¼": 342,
      "ĠÐ¾Ð´": 343,
      "Ð¾Ð»ÑĮÐºÐ¾": 344,
      "Ð¸Ð»Ð°": 345,
      "ÑĥÐ¿": 346,
      "ÑĥÑİ": 347,
      "Ð¸ÑĢ": 348,
      "ĠÐ¿Ð¾Ð»": 349,
      "ÐµÐ³": 350,
      "ĠÐ³Ð¾": 351,
      "ĠÐºÐ¾ÑĤÐ¾ÑĢ": 352,
      "Ð¸Ð»Ð¸": 353,
      "Ġ\"": 354,
      "Ð¾Ð³Ð´Ð°": 355,
      "Ð°Ð³": 356,
      "Ð½ÑĥÐ»": 357,
      "ĠÐµÐµ": 358,
      "ĠÐ±ÑĭÐ»Ð¾": 359,
      "ÑģÑĤÑĮ": 360,
      "Ð¾Ð¼Ñĥ": 361,
      "ĠÐ¯": 362,
      "ÑĭÐ¼": 363,
      "ĠÐ´Ð²": 364,
      "Ð½Ð¾Ð³Ð¾": 365,
      "Ð¾Ðµ": 366,
      "Ð¸Ñģ": 367,
      "ĠÐ¿Ð¾Ñģ": 368,
      "ĠÐ³Ð»": 369,
      "Ð°Ñİ": 370,
      "Ð¼Ñĥ": 371,
      "ĠÑĥÐ¶": 372,
      "ĠÐ³Ð¾Ð²Ð¾ÑĢ": 373,
      "Ð½ÑĭÐµ": 374,
      "ÑıÑĤ": 375,
      "ĠÐĵ": 376,
      "Ð°Ñħ": 377,
      "Ð¾ÑģÑĮ": 378,
      "ĠÐ»Ñİ": 379,
      "ĠÐĽ": 380,
      "Ð°Ð»ÑĮ": 381,
      "Ð°ÐµÑĤ": 382,
      "ÐµÐ½Ñı": 383,
      "ĠÑĤÑĢ": 384,
      "ĠÑĢÑĥ": 385,
      "ÑĭÐµ": 386,
      "ĠÐŀÐ½": 387,
      "ĠâĢĵ": 388,
      "ĠÑģÐ¼": 389,
      "ĠÐ³Ð¾Ð»": 390,
      "Ð¸ÑĪ": 391,
      "ĠÐĳ": 392,
      "ÑĢÐ¾Ñģ": 393,
      "Ð¸Ð»ÑģÑı": 394,
      "ĠÑģÐ°Ð¼": 395,
      "ÑģÑĤÑĢ": 396,
      "ÑĥÑĢ": 397,
      "ĠÑĢÐ°Ñģ": 398,
      "ÐµÐ½Ð¸": 399,
      "ĠÐ²Ð·": 400,
      "Ð¾Ð²Ð°": 401,
      "Ð°ÑĪ": 402,
      "Ð°Ð»ÑģÑı": 403,
      "ĠÐ±ÑĥÐ´": 404,
      "ÑĭÑħ": 405,
      "ĠÑĤÑĭ": 406,
      "ĠÐ¼ÐµÐ½Ñı": 407,
      "Ð½Ð¸Ðº": 408,
      "Ð´Ðµ": 409,
      "ÐµÐ½Ð¸Ðµ": 410,
      "Ð¸ÑĤÐµÐ»ÑĮ": 411,
      "ÑħÐ¾Ð´": 412,
      "ĠÑģÐºÐ°Ð·Ð°Ð»": 413,
      "Ð½Ð°Ñı": 414,
      "ÑģÐ¿": 415,
      "ĠÑģÐµÐ±": 416,
      "ĠÐ¼Ð½Ðµ": 417,
      "ÐµÑĢÑĮ": 418,
      "ĠÐł": 419,
      "ÐµÐ½Ð¸Ñı": 420,
      "Âł": 421,
      "ĠÐ³ÑĢ": 422,
      "Ð½ÑĭÑħ": 423,
      "ĠÐ²Ð¸Ð´": 424,
      "ĠÐµÐ¼Ñĥ": 425,
      "Ð¸Ð½Ð°": 426,
      "ÐµÐ»Ð¾Ð²": 427,
      "Ð¸Ð±": 428,
      "ĠÐ¿Ð¾ÑĤ": 429,
      "ĠÑĤÐ¾Ð»ÑĮÐºÐ¾": 430,
      "Ð½Ð¾Ðµ": 431,
      "ĠÐ¿Ð¾Ðº": 432,
      "ĠÐ¿Ð»": 433,
      "ĠÐ½Ð°Ð´": 434,
      "ÑĢÐ°Ð²": 435,
      "ĠÑĦ": 436,
      "ÑĤÐµ": 437,
      "Ð¸Ð³": 438,
      "ĠÐµÑīÐµ": 439,
      "ĠÐ¾Ð¿": 440,
      "ÑĪÐµ": 441,
      "ĠÐ´ÐµÐ»": 442,
      "ÐµÑħ": 443,
      "ÐµÐ»Ð¸": 444,
      "Ð¸ÑĤÐµ": 445,
      "ÑĥÑħ": 446,
      "ÑıÑĤÑĮ": 447,
      "ÐµÐ¼Ñĥ": 448,
      "ĠÐ·Ð½Ð°": 449,
      "ĠÐ§": 450,
      "ĠÐ´ÑĢÑĥÐ³": 451,
      "ÑıÐ»": 452,
      "ĠÐ³Ð»Ð°Ð·": 453,
      "ÑģÑĤÐ°Ð²": 454,
      "ĠÐķ": 455,
      "ĠÐ¸Ð¼": 456,
      "ÑĤÐ¸": 457,
      "ÑĭÑĪ": 458,
      "ÑĢÐµÐ¼": 459,
      "ĠÐ¿ÑĢÐµÐ´": 460,
      "ĠÐ¾Ñĩ": 461,
      "ĠÐ¾ÑĤÐ²": 462,
      "ĠÐ³Ð¾ÑĢ": 463,
      "ÑĥÐ²": 464,
      "ÑģÑĤÐ¸": 465,
      "ÑĥÐ·": 466,
      "Ð¾ÑĤÑĢ": 467,
      "Ð½Ð¸": 468,
      "ĠÐ¿ÑĢÐ¾": 469,
      "ĠÐ²Ð¾Ð·": 470,
      "ĠÑĥÐ¶Ðµ": 471,
      "Ð°Ð½Ð¾Ð²": 472,
      "ĠÐ±Ð»": 473,
      "ÐµÐ»Ð°": 474,
      "ĠÐĹ": 475,
      "ĠÑģÑĤÐ°ÑĢ": 476,
      "ÑĥÐ»": 477,
      "ÐºÐµ": 478,
      "Ð¸Ð¶": 479,
      "ÑĮÑı": 480,
      "ÐºÐ¾Ð²": 481,
      "ĠÐ¼Ð¾Ð»": 482,
      "ÐµÑĨ": 483,
      "ĠÐ¼Ñĭ": 484,
      "Ð¾Ð±ÑĢ": 485,
      "Ð°Ð»Ð¾": 486,
      "ĠÑĨ": 487,
      "ÐºÐ¾Ð¹": 488,
      "ĠÑĩÐµÐ»Ð¾Ð²": 489,
      "ĠÐ»Ð¸ÑĨ": 490,
      "ÐµÑĪÑĮ": 491,
      "Ð¸ÑģÑĤ": 492,
      "ĠÐ»ÑİÐ±": 493,
      "Ð»Ð¸Ð²": 494,
      "ĠÐ¼Ð¾Ð³": 495,
      "Ð»Ñİ": 496,
      "ĠÐºÐ¾Ð½": 497,
      "ÑĤÐ¾Ð±": 498,
      "ĠÐ¾Ñģ": 499,
      "ĠÐĿÐ¾": 500,
      "ĠÐŃ": 501,
      "ÐµÑģÐº": 502,
      "Ð¸Ð¼Ð¸": 503,
      "ĠÐ¼Ð¾": 504,
      "ĠÑĩÐµÑĢ": 505,
      "ĠÐ½ÐµÐ³Ð¾": 506,
      "ÑĢÐ°Ð½": 507,
      "ĠÑģÐ¾": 508,
      "ĠÐ¾Ðº": 509,
      "ĠÐŁÑĢ": 510,
      "ĠÑĤÐµÐ±": 511,
      "ĠÐºÐ¾Ð³Ð´Ð°": 512,
      "Ð»ÑıÐ´": 513,
      "ĠÑĩÑĤÐ¾Ð±": 514,
      "ĠÐ±Ð¾Ð»ÑĮ": 515,
      "ĠÐ±ÐµÐ·": 516,
      "ĠÐ¼Ð¾Ð¶": 517,
      "ĠÐ¸Ñħ": 518,
      "ĠÑĩÐµÐ»Ð¾Ð²ÐµÐº": 519,
      "ĠÐ½Ð¸": 520,
      "ĠÐ£": 521,
      "Ð°ÑıÑģÑĮ": 522,
      "ÑĢÐ°ÑĤ": 523,
      "ĠÐ´Ð»Ñı": 524,
      "ÑģÐ»": 525,
      "ÐµÐ¿ÐµÑĢÑĮ": 526,
      "Ð¸ÑģÑĮ": 527,
      "ĠÐ²ÐµÑĢ": 528,
      "Ð¾Ð»Ð¶": 529,
      "ÐµÐµ": 530,
      "ÑģÐ»Ð¸": 531,
      "ÑĬ": 532,
      "Ð¸Ð¸": 533,
      "ĠÐ¿Ð¾ÑģÐ»": 534,
      "Ð»Ð¾": 535,
      "ĠÐ´Ð¾": 536,
      "Ð²ÐµÑĢ": 537,
      "ĠÐ²Ð¾": 538,
      "Ð°ÑģÑĤ": 539,
      "Ð½ÑĥÑİ": 540,
      "ĠÐ¿Ð¾Ð½": 541,
      "ÑĥÐ²ÑģÑĤÐ²": 542,
      "ĠÑĥÐ´": 543,
      "ĠÐ¿Ð¾Ð²": 544,
      "Ð°Ð»Ð¾ÑģÑĮ": 545,
      "Ð½Ð¾Ð²": 546,
      "ÑĥÑģÑĤ": 547,
      "ĠÑģÐ¾Ð²": 548,
      "ÐµÑĤÐµ": 549,
      "ĠÐ¿Ð¾Ñĩ": 550,
      "ĠÐ¿Ð¾ÑĢ": 551,
      "ĠÑħÐ¾ÑĤ": 552,
      "Ð´Ñĥ": 553,
      "ĠÐ·Ð°Ð¼": 554,
      "ÐµÑĤÑģÑı": 555,
      "ĠÐ»Ð¸": 556,
      "ĠÐ¤": 557,
      "Ð´ÑĢ": 558,
      "ĠÑģÐµÐ±Ñı": 559,
      "Ð»ÐµÐ½": 560,
      "ĠÐĶÐ°": 561,
      "Ð¸Ð¿": 562,
      "ĠÐºÐ¾Ð¼": 563,
      "ÑĢÑĭ": 564,
      "ĠÐ¶ÐµÐ½": 565,
      "Ð°Ñĩ": 566,
      "ĠÐ½Ð°Ð¿": 567,
      "ĠÐĿÐµ": 568,
      "Ð°Ð²ÑĪ": 569,
      "Ð°Ð»Ð¸ÑģÑĮ": 570,
      "Ð¾Ñħ": 571,
      "ÐµÑĤÑĮ": 572,
      "ĠÐ¾Ð½Ð¸": 573,
      "ĠÐ±ÑĭÑĤÑĮ": 574,
      "Ð½Ð¾Ð¼": 575,
      "Ð¾Ñİ": 576,
      "ĠÐ¿Ð¾Ð¼": 577,
      "Ð¸Ð»Ð°ÑģÑĮ": 578,
      "ĠÐ¿ÑĢÐ¸": 579,
      "ĠÐ¾ÑĩÐµÐ½ÑĮ": 580,
      "ĠÐ½Ð°Ñģ": 581,
      "ĠÐ´ÑĥÐ¼": 582,
      "ĠÐ²Ð´": 583,
      "ĠÐ´Ð°": 584,
      "ĠÐ³Ð¾Ð»Ð¾Ð²": 585,
      "ĠÑģÐµÑĢ": 586,
      "Ñĳ": 587,
      "Ð¼Ð¸": 588,
      "ĠÑĤÐµÐ¼": 589,
      "ĠÑĤÐµÐ¿ÐµÑĢÑĮ": 590,
      "Ð°Ð¶Ðµ": 591,
      "ĠÐ²Ð¾ÑĤ": 592,
      "ĠÐ±ÑĭÐ»Ð°": 593,
      "Ð°Ð»Ð°ÑģÑĮ": 594,
      "Ð»Ñĭ": 595,
      "Ð°ÑĤÑĮÑģÑı": 596,
      "ĠÐ»ÑİÐ´": 597,
      "ĠÐ½Ð¸Ðº": 598,
      "ÑĮÑİ": 599,
      "ÑĢÑı": 600,
      "ĠÐ²Ð°Ñģ": 601,
      "ĠÑģÐ¿ÑĢÐ¾Ñģ": 602,
      "ÐºÐ¾Ð¼": 603,
      "ĠÑģÐ¾Ð±": 604,
      "ĠÐ½Ð°Ñĩ": 605,
      "ĠÐ²ÑĢÐµÐ¼": 606,
      "ĠÑĥÐ¼": 607,
      "Ð¸ÑĤÐµÐ»ÑĮÐ½Ð¾": 608,
      "ĠÐĲÐ½": 609,
      "ĠÐ¸Ð»Ð¸": 610,
      "ÑĥÐ´Ð°": 611,
      "ĠÐ´Ð¾Ð¼": 612,
      "--": 613,
      "ÑĤÑĢ": 614,
      "ÑĥÐ´ÑĮ": 615,
      "ĠÐ´Ð°Ð¶Ðµ": 616,
      "ĠÐ½ÐµÐ¿": 617,
      "ĠÐ¾ÑģÑĤ": 618,
      "ĠÐŀÐ½Ð°": 619,
      "ĠÑĩÐµÐ¼": 620,
      "ÑģÐµ": 621,
      "Ð¸Ð²ÑĪ": 622,
      "ĠÑģÑĤÐ¾": 623,
      "ĠÐ²Ð¾Ñģ": 624,
      "Ð¾Ð¶Ðµ": 625,
      "Ð¸ÑĤÑĮÑģÑı": 626,
      "ĠÐºÐ°Ð·": 627,
      "Ð´ÐµÐ»": 628,
      "ĠÐ·Ð°Ðº": 629,
      "ĠÐĿÑĥ": 630,
      "Ð½Ð¸Ð¼": 631,
      "Ð¸Ð»ÑĮ": 632,
      "ĠÐ·Ð½": 633,
      "ĠÐ·Ð°Ð¿": 634,
      "ĠÐĺÐ²": 635,
      "ĠÐŃÑĤÐ¾": 636,
      "ÑĢÐµÐ´": 637,
      "ÑĢÐ¾Ð²": 638,
      "Ð¾ÑĢÐ¾ÑĪ": 639,
      "Ð¸Ð½Ñĥ": 640,
      "ÑģÑĤÐ²Ð¾": 641,
      "ÐµÑĢÐ¶": 642,
      "ĠÑĩÑĤÐ¾Ð±Ñĭ": 643,
      "ĠÐļÐ°Ðº": 644,
      "ĠÐ²Ð¿": 645,
      "ĠÐµÐ¹": 646,
      "ĠÐ½Ð¸Ñĩ": 647,
      "ĠÑĩÑĥÐ²ÑģÑĤÐ²": 648,
      "ĠÐ½ÐµÑĤ": 649,
      "Ð½ÑĭÐ¼Ð¸": 650,
      "ÑĢÐ°Ð·": 651,
      "ĠÐ½Ð°ÑĪ": 652,
      "ĠÐ¿ÑĢÐ°Ð²": 653,
      "Ð¸Ð»Ð¸ÑģÑĮ": 654,
      "ĠÐºÐ¾Ð»": 655,
      "Ð¸ÑĪÑĮ": 656,
      "ĠÐ±ÐµÑģ": 657,
      "ĠÐ½ÐµÐ¼": 658,
      "ÐµÑī": 659,
      "ÑĨÐ°": 660,
      "ĠÐ²Ð°Ð¼": 661,
      "Ð»ÑĭÐ±": 662,
      "ĠÐ±Ð¾Ð»": 663,
      "ĠÑĥÐ²": 664,
      "..": 665,
      "ĠÐ±ÑĭÐ»Ð¸": 666,
      "ĠÑĥÐ»ÑĭÐ±": 667,
      "ĠÑģÐ»Ð¾Ð²": 668,
      "Ð°ÑĤÐµÐ»ÑĮ": 669,
      "Ð½ÐµÐ¹": 670,
      "ĠÑģÐµÐ±Ðµ": 671,
      "ĠÐ¶Ð¸Ð·": 672,
      "Ð°ÑİÑĤ": 673,
      "ÑĭÐ»": 674,
      "ĠÐ³Ð¾Ð»Ð¾Ñģ": 675,
      "ĠÐ²Ð´ÑĢÑĥÐ³": 676,
      "ĠÐ¡ÑĤ": 677,
      "ĠÐ¡Ð°Ð¼": 678,
      "ĠÐĲÐ»": 679,
      "ĠÐ¿ÑĢÐ¾Ñģ": 680,
      "ĠÐ´ÑĢ": 681,
      "ÑĢÐ°ÑĪ": 682,
      "ĠÐºÑĢÐ°Ñģ": 683,
      "ÑĩÐ°Ñģ": 684,
      "Ð°Ð·ÑĭÐ²": 685,
      "ĠÑģÐºÐ°Ð·Ð°Ð»Ð°": 686,
      "ĠÑĤÐ¾Ð³Ð¾": 687,
      "ĠÐºÐ¾ÑĢ": 688,
      "ÐµÐ´ÑĮ": 689,
      "ÑĥÑģ": 690,
      "ÑĭÑĤ": 691,
      "ĠÐľÐ°ÑĢ": 692,
      "ĠÑģÑĤÐ¾Ð»": 693,
      "Ð½Ð¸ÑĨ": 694,
      "ĠÐ¾Ð³": 695,
      "ĠÐºÐ½Ñı": 696,
      "ĠÐ½Ð¸Ð¼": 697,
      "ĠÐ§ÑĤÐ¾": 698,
      "ĠÐ¿Ð¾Ð¿": 699,
      "ĠÐ²Ð°ÑĪ": 700,
      "ÑĥÐº": 701,
      "ĠÐ¿ÐµÑĢÐµÐ´": 702,
      "ÑĤÐ°": 703,
      "ĠÑĥÐ³": 704,
      "ĠÐ¾ÑĤÐº": 705,
      "ÐºÐ¸Ð¹": 706,
      "ÑıÐ½": 707,
      "ĠÐ³Ð»Ð°Ð·Ð°": 708,
      "ÑıÐ·": 709,
      "Ð½Ð¾ÑģÑĤÑĮ": 710,
      "ÑģÐºÐ¸Ð¹": 711,
      "Ð°Ð¶Ð´": 712,
      "ĠÐ²Ð¾Ð»": 713,
      "ÐµÑĢÐ°": 714,
      "Ð»Ð°Ð´": 715,
      "ĠÐĴÑĭ": 716,
      "Ġ(": 717,
      "ĠÐ¼Ð¾Ð¶ÐµÑĤ": 718,
      "Ð¾Ð´Ð°": 719,
      "ĠÐ·Ð°Ð±": 720,
      "\".": 721,
      "ĠÐ¸ÑģÐ¿": 722,
      "ĠÑįÑĤÐ¾Ð³Ð¾": 723,
      "ĠÐŁÐµÑĤ": 724,
      "Ð½ÑĥÐ²": 725,
      "ĠÐ½Ð¸ÑĩÐµÐ³Ð¾": 726,
      "ÑĭÐ¼Ð¸": 727,
      "Ð½Ð¾ÑģÑĤÐ¸": 728,
      "Ð½ÐµÐµ": 729,
      "ĠÐµÑģÐ»Ð¸": 730,
      "Ð°Ð½Ð¸Ñı": 731,
      "ÑĢÐ°Ñģ": 732,
      "Ð¸Ð½ÑĥÑĤ": 733,
      "ĠÐ±ÑĥÐ´ÐµÑĤ": 734,
      "ĠÐ¿Ð¾Ð·": 735,
      "Ð½ÑĥÐ»ÑģÑı": 736,
      "Ð°Ð½Ð¸Ðµ": 737,
      "ĠÐ³Ð´Ðµ": 738,
      "ĠÑĥÐ±": 739,
      "ĠÐ½ÐµÐ¹": 740,
      "ÐµÐ»Ð¾": 741,
      "ÑıÐ´": 742,
      "ĠÐĵÑĢ": 743,
      "ĠÐ²ÑĢÐµÐ¼Ñı": 744,
      "ĠÐ½ÐµÐ²": 745,
      "ÑĨÐµ": 746,
      "ĠÐ¿ÑĢÐ¸Ð½": 747,
      "ÑĤÐ¾Ð²": 748,
      "ĠÑĩÐ°Ñģ": 749,
      "ÑĪÐµÐ»": 750,
      "ĠÐĿÐ°": 751,
      "ĠÑģÐ¼Ð¾ÑĤÑĢ": 752,
      "ĠÑĤÐ¾ÑĤ": 753,
      "ĠÐ½ÐµÐ´": 754,
      "ĠÐ·Ð°Ð²": 755,
      "ĠÑģÑĤÑĢ": 756,
      "ÐºÐ°Ð¼Ð¸": 757,
      "ĠÐ¿ÑĢÐ¾Ð´": 758,
      "ĠÐ³Ð¾Ð²Ð¾ÑĢÐ¸Ð»": 759,
      "³Ð¾ÑĢ": 760,
      "Ð¸ÑĤÑģÑı": 761,
      "ĠÑģÐµÑĢÐ´": 762,
      "Ð¸Ð±ÑĥÐ´ÑĮ": 763,
      "Ð¾Ð²Ð°Ð»": 764,
      "Ð³Ð¸Ð½": 765,
      "ĠÑħÐ¾ÑĢÐ¾ÑĪ": 766,
      "ĠÐĿÐ¸Ðº": 767,
      "ĠÐ½Ð¾Ð³": 768,
      "ĠÐ¶ÐµÐ»": 769,
      "ĠÐ´ÐµÐ½ÑĮ": 770,
      "ĠÐµÑģÑĤÑĮ": 771,
      "Ð¼Ð¾ÑĤÑĢ": 772,
      "ĠÑĤÐµÐ±Ñı": 773,
      "ĠÐ¥": 774,
      "Ð½Ð¸Ð±ÑĥÐ´ÑĮ": 775,
      "Ð¾ÑģÑĤÐ¸": 776,
      "ĠÐ¾Ð¿ÑıÑĤÑĮ": 777,
      "ÐµÑİ": 778,
      "ĠÐºÐ°ÑĢ": 779,
      "ĠÐ¾Ð´Ð¸Ð½": 780,
      "ĠÐ½Ð°Ðº": 781,
      "Ð¸Ð²Ð°Ñı": 782,
      "ĠÐºÐ¾Ð¼Ð½Ð°": 783,
      "ĠÑĥÑģ": 784,
      "ĠÑĥÐ¿": 785,
      "ÑģÑĤÐ²Ð°": 786,
      "ĠÑĤÐ¾Ð¼": 787,
      "ĠÑģÐ¸Ð´": 788,
      "ÐµÐ½Ð¸ÐµÐ¼": 789,
      "ÑĩÐ°": 790,
      "Ð¸ÑĩÐµÑģÐº": 791,
      "ĠÑĤÐµÐ±Ðµ": 792,
      "ĠÑģÐ¿ÑĢÐ¾ÑģÐ¸Ð»": 793,
      "Ð¸Ð»Ð¾ÑģÑĮ": 794,
      "ĠÑįÑĤÐ¾ÑĤ": 795,
      "Ð»Ðµ": 796,
      "ÑģÑĤÐ²ÐµÐ½": 797,
      "ĠÑģÐ´ÐµÐ»": 798,
      "ÑģÑĤÑĢÐ¾": 799,
      "Ð½ÑĥÐ»Ð°": 800,
      "ĠÐ´Ð¾Ð»Ð¶": 801,
      "ÑĥÐ½": 802,
      "ĠÑĢÐ°Ð´": 803,
      "ĠÐ¿Ð¾Ð³": 804,
      "ĠÐ½Ð°Ð´Ð¾": 805,
      "ĠÐ»Ð¸ÑĨÐ¾": 806,
      "ĠÑĤÐ°Ð¼": 807,
      "ÐµÑĢÐ¸": 808,
      "ĠÐĴÐ¾ÑĤ": 809,
      "ÑģÑĤÑĥÐ¿": 810,
      "\",": 811,
      "ĠÐ¼ÑĥÐ¶": 812,
      "ÑıÐ²": 813,
      "ĠÐ¼Ð¸Ð½ÑĥÑĤ": 814,
      "ĠÐ¿ÐµÑĢÐ²": 815,
      "ĠÐ¿ÑĢÐ¸Ð²": 816,
      "Ð»Ð¾Ð²": 817,
      "Ð¾ÑĢÐ¾Ð²": 818,
      "ÑıÑī": 819,
      "ĠÐ½ÐµÐµ": 820,
      "ĠÐ¿ÑĢÐ¾ÑĤ": 821,
      "ĠÐ²ÑģÑı": 822,
      "ÑĤÐ¾ÑĢÐ¾Ð½": 823,
      "ÑĩÐ½Ð¾": 824,
      "ÑĥÐ¹": 825,
      "Ð¸ÑıÑĤ": 826,
      "ĠÑĤÑĥÑĤ": 827,
      "Ð¸Ñİ": 828,
      "ĠÑĤÐ¾Ð»": 829,
      "ÑĩÐ¸Ðº": 830,
      "ÑĤÑĭ": 831,
      "ÐµÑĢÐµÐ´": 832,
      "!..": 833,
      "ĠÐ·Ð²": 834,
      "ÑıÐ¼": 835,
      "ĠÐ¾ÑĤÐ²ÐµÑĤ": 836,
      "ÐµÐ½Ð¸Ð¸": 837,
      "ĠÑĤÐ¾Ð¶Ðµ": 838,
      "Ð°ÐµÑĤÑģÑı": 839,
      "ĠÐ²Ð·Ð³": 840,
      "ĠÑĢÐµÑĪ": 841,
      "ĠÐ¢Ñĭ": 842,
      "ĠÐ·Ð°Ð´": 843,
      "ÑĩÐ¸ÑĤ": 844,
      "ĠÐ´ÐµÐ²": 845,
      "ĠÐ¼Ð¾Ð»Ð¾Ð´": 846,
      "ĠÐ±ÑĥÐ´ÑĤÐ¾": 847,
      "ĠÐ¿Ð¾ÑĤÐ¾Ð¼Ñĥ": 848,
      "Ð¾Ð¼Ð½": 849,
      "ÑıÐ¶": 850,
      "ÐµÑĢÑĪ": 851,
      "ĠÑģÐ¾Ð»": 852,
      "ĠÐ½ÐµÑģÐº": 853,
      "ÑıÑģÑĮ": 854,
      "ĠÐ¸Ð½": 855,
      "ĠÐ¢Ð°Ðº": 856,
      "ĠÐ±Ð¾Ð»ÑĮÑĪ": 857,
      "ÑģÐºÐ¾Ð¹": 858,
      "Ð°ÑİÑī": 859,
      "ÑĥÑī": 860,
      "ĠÐ²ÑģÐµÑħ": 861,
      "ĠÐ´ÑĥÑĪ": 862,
      "ĠÐ¿Ð¾Ð¶": 863,
      "Ð¾ÑģÑĤÑĮ": 864,
      "ĠÐºÐ½ÑıÐ·": 865,
      "ÑĢÐ°ÑĦ": 866,
      "ÑĭÑĩ": 867,
      "ÑĤÑĥ": 868,
      "ĠÐĲÐ»ÐµÐº": 869,
      "ĠÐ½Ð°Ð¼": 870,
      "ĠÑģÑĤÐ¾ÑĢÐ¾Ð½": 871,
      "Ð¾ÐºÐ¾": 872,
      "ĠÑģÐ½": 873,
      "ĠÐ½Ð¸Ñħ": 874,
      "ÑĢÐ¾Ð´": 875,
      "ĠÐ¶Ð¸Ð²": 876,
      "ÑģÐºÐ¾Ð³Ð¾": 877,
      "ĠÐ±Ð¾Ð³": 878,
      "ĠÐ´Ð¾ÑĢ": 879,
      "Ð¾Ð²Ð°ÑĢ": 880,
      "ÐµÐ³Ð´Ð°": 881,
      "ĠÐ¼Ð°Ð»": 882,
      "Ð¸Ð»Ð¾": 883,
      "ÑİÑĤ": 884,
      "ĠÑĥÐ·": 885,
      "ÑĢÑĭÐ²": 886,
      "ĠÐºÑĤÐ¾": 887,
      "Ð°Ð²Ð½Ð¾": 888,
      "Ð²Ð°ÑĢ": 889,
      "Ð»Ð¾Ð½": 890,
      "ĠÐ²ÑĭÑģ": 891,
      "ĠÐ²ÐµÑģ": 892,
      "ÐµÑģÑı": 893,
      ",--": 894,
      "ÐµÐ½Ð½ÑĭÐ¹": 895,
      "Ð¾Ð²Ð¾Ð»ÑĮ": 896,
      "ĠÑģÐ²Ð¾ÐµÐ¹": 897,
      "Ð°ÐºÐ¾Ð¼": 898,
      "ĠÐºÐ¾ÑĤÐ¾ÑĢÑĭÐ¹": 899,
      "Ð°ÐºÐ¸": 900,
      "ÑĢÐ¾Ð½": 901,
      "ĠÑģÐ»ÑĥÑĩ": 902,
      "ĠÐ¸Ð·Ð²": 903,
      "ĠÐ½Ð¾Ñĩ": 904,
      "ĠÐ´ÐµÐ»Ð¾": 905,
      "ĠÐ¿ÑĢÐ¾Ð´Ð¾Ð»Ð¶": 906,
      "ĠÐ´Ð¾Ð»": 907,
      "ÑĢÐ¾Ð¼": 908,
      "Ð¾ÑĪÐµÐ»": 909,
      "ĠÐ·Ð°Ð³": 910,
      "ĠÑĢÑĥÐºÐ¸": 911,
      "Ð¾ÐºÐ¾Ð¹": 912,
      "ÑĢÐ°Ð¶": 913,
      "Ð²Ð°ÑĤ": 914,
      "ÐºÐ°Ñħ": 915,
      "ĠÑĢÐ°Ð·Ð³": 916,
      "ĠÐĿÐµÑĤ": 917,
      "Ð°Ð½Ð°": 918,
      "ĠÑħÐ¾Ñĩ": 919,
      "ĠÑįÑĤÐ¾Ð¼": 920,
      "ĠÑĩÐµÐ³Ð¾": 921,
      "ĠÐļÐ»": 922,
      "ĠÐ²ÐµÐ»": 923,
      "ĠÑĤÐ¸Ñħ": 924,
      "ÑıÑģ": 925,
      "ĠÐ¿Ð¾ÑĤÐ¾Ð¼": 926,
      "Ð¸Ð¼Ð¾": 927,
      "ĠÐ½ÐµÑģ": 928,
      "ĠÑģÐ¾Ñģ": 929,
      "ĠÑģÐ²Ð¾Ñİ": 930,
      "ĠÑģÐ»ÑĭÑĪ": 931,
      "ĠÑī": 932,
      "ĠÑĢÑĥÐºÑĥ": 933,
      "ĠÐ¡Ð°Ð¼Ð³Ð¸Ð½": 934,
      "ĠÐ²ÑģÐ¿": 935,
      "ÐµÑģÑĤÐµ": 936,
      "Ð¸Ñī": 937,
      "Ð¸Ð³Ð¾ÑĢ": 938,
      "ÐĿ": 939,
      "ÑĭÐº": 940,
      "ÐµÑģÑĮ": 941,
      "ĠÑĢÐ°ÑģÑģÐº": 942,
      "Ð½Ñİ": 943,
      "ĠÐ½ÐµÑģÐºÐ¾Ð»ÑĮÐºÐ¾": 944,
      "ĠÐ±ÐµÐ»": 945,
      "ĠÐ³Ð»ÑıÐ´": 946,
      "Ð¸Ð½Ñĭ": 947,
      "Ð¸Ð²Ð°Ð»": 948,
      "ĠÐ±Ð¾Ð»ÐµÐµ": 949,
      "Ð°Ð¹ÑĤÐµ": 950,
      "ĠÐ´ÐµÑĢ": 951,
      "ĠÑģÑĭ": 952,
      "Ð½ÑĮ": 953,
      "Ð²ÐµÑĤ": 954,
      "ĠÐ¿Ð¾Ð½Ð¸Ð¼": 955,
      "ÑĤÐµÑĢ": 956,
      "ĠÐ¿Ð°ÑĢ": 957,
      "Ð¾Ð»Ð¾Ð´": 958,
      "ĠÐ»ÑĥÑĩ": 959,
      "ĠÐ½ÑĥÐ¶": 960,
      "ĠÐ·Ð°Ñģ": 961,
      "ĠÐ²ÐµÐ´ÑĮ": 962,
      "ĠÐ¼Ð¾Ð¹": 963,
      "ĠÐ½Ð¾Ð²": 964,
      "ĠÐ·ÐµÐ¼": 965,
      "ĠÐ²ÑģÐµÐ³Ð´Ð°": 966,
      "Ð¸Ð½Ðµ": 967,
      "ĠÐ¾ÑĤÐ²ÐµÑĩ": 968,
      "Ð»Ð¸ÑģÑĮ": 969,
      "ĠÐ±ÑĢ": 970,
      "ÐµÐ½Ð°": 971,
      "ĠÐ¿Ð¾ÑģÐ»Ðµ": 972,
      "ĠÐĵÑĢÐ¸Ð³Ð¾ÑĢ": 973,
      "ĠÐ¾ÑģÐ¾Ð±": 974,
      "ĠÑģÐºÐ°Ð·Ð°ÑĤÑĮ": 975,
      "ĠÐ·Ð°ÑĤ": 976,
      "ĠÑĢÐ°Ð±": 977,
      "ĠÐ²ÐµÑĩ": 978,
      "ĠÐ»ÐµÑĤ": 979,
      "ĠÑĤÐ¾Ð³Ð´Ð°": 980,
      "ĠÐĺÐ²Ð°Ð½Ð¾Ð²": 981,
      "Ð½Ð¾Ð¼Ñĥ": 982,
      "ĠÐ¿ÑĢÐ¸Ñģ": 983,
      "ĠÑĢÐ°ÑģÐ¿": 984,
      "ĠÐ·Ð½Ð°Ñİ": 985,
      "ĠÐ¿Ð¾Ð±": 986,
      "ĠÐ²ÑģÑĤÑĢ": 987,
      "ĠÐĲÐ½Ð´ÑĢ": 988,
      "ĠÑĥÐº": 989,
      "Ð°Ð½Ð´": 990,
      "ÐµÑĢÑĤ": 991,
      "ĠÑģÐ²ÐµÑĤ": 992,
      "Ð½Ð¾Ñİ": 993,
      "ĠÐ¸ÑģÐº": 994,
      "ĠÐ³Ð¾ÑģÐ¿": 995,
      "ĠÑĥÐ²Ð¸Ð´": 996,
      "Ð¸Ð½Ð¾Ð²": 997,
      "ĠÐ²ÑģÐµÐ¼": 998,
      "ÑĩÐ°ÑģÑĤ": 999,
      "ĠÐºÐ¾ÑĤÐ¾ÑĢÑĭÐµ": 1000,
      "ĠÑħÐ¾ÑĤÐµÐ»": 1001,
      "ĠÐ¶ÐµÐ½Ñī": 1002,
      "Ð°Ð½ÑĤ": 1003,
      "ÐµÐ¶Ð´Ñĥ": 1004,
      "ĠÑįÑĤÐ¸": 1005,
      "Ð»Ð°Ñģ": 1006,
      "ĠÐ¨": 1007,
      "ĠÐ³Ð¾Ð»Ð¾Ð²Ñĥ": 1008,
      "ĠÐ½Ð°Ð·": 1009,
      "ĠÐ¿ÑĢÐ¸Ðº": 1010,
      "ĠÐ½ÐµÐ±": 1011,
      "ĠÐ½Ð°Ð²": 1012,
      "ÑĭÐ´": 1013,
      "ĠÐĴÑģÐµ": 1014,
      "ĠÐ²Ð¾Ð¿": 1015,
      "ĠÐ¾ÑģÑĤÐ°Ð²": 1016,
      "Ð»Ð¸Ð²Ð¾": 1017,
      "ĠÐ»ÐµÐ³": 1018,
      "Ð¾Ñī": 1019,
      "ĠÐ±Ð°ÑĢ": 1020,
      "ÑģÐµÐ¼": 1021,
      "ĠÐ±Ð¾Ð»ÑĮÑĪÐµ": 1022,
      "ĠÑģÐ¾Ð²ÐµÑĢÑĪ": 1023,
      "ĠÐ¿ÑĢÐ¸Ð±": 1024,
      "ĠÐ¿Ð¾ÑģÐ»ÐµÐ´": 1025,
      "ĠÑģÐ»Ð¾Ð²Ð°": 1026,
      "Ð²Ð¾ÑĢ": 1027,
      "ĠÑĢÐ°ÑģÑģ": 1028,
      "ĠÐºÐ°ÐºÐ¾Ð¹": 1029,
      "ĠÐ¿Ð¾Ð´ÑĥÐ¼": 1030,
      "ÑĪÐ¸Ð¹": 1031,
      "ĠÐ²ÑģÑĳ": 1032,
      "ÑĥÑģÐº": 1033,
      "ĠÐ³ÑĥÐ±": 1034,
      "ĠÐ¸Ð´": 1035,
      "ĠÑģÑĤÐ°Ð»": 1036,
      "ĠÑĢÐ¾Ð´": 1037,
      "ĠÐ¼Ð¸Ð»": 1038,
      "ĠÐ·Ð°Ð¼ÐµÑĤ": 1039,
      "ĠÐ´Ð¾ÑĢÐ¾Ð³": 1040,
      "Ð¾Ð½ÐµÑĨ": 1041,
      "ĠÐ½ÐµÐ¿ÑĢ": 1042,
      "ĠÐĿÐ¸ÐºÐ¾Ð»": 1043,
      "Ð½ÑĥÑĤÑĮ": 1044,
      "ĠÑģÐ»ÐµÐ´": 1045,
      "ÐµÐ»Ñı": 1046,
      "ÑĢÐ°Ñī": 1047,
      "ĠÐ»ÑİÐ´ÐµÐ¹": 1048,
      "ĠÐ¸Ñģ": 1049,
      "ĠÐĲÐ»ÐµÐºÑģ": 1050,
      "ĠÑģÑĤÑĢÐ°Ð½": 1051,
      "!\"": 1052,
      "ÑĭÑĢ": 1053,
      "ĠÐ¼Ð°ÑĤ": 1054,
      "ĠÑĢÐ°Ð·Ð²": 1055,
      "ĠÐ²Ð¼": 1056,
      "Ð¿ÑĢ": 1057,
      "Ð´ÐµÑģÑĮ": 1058,
      "ĠÑĩÐµÑĢÐµÐ·": 1059,
      "ĠÐ°ÑĢ": 1060,
      "ĠÐ¼Ð½Ð¾Ð³Ð¾": 1061,
      "ĠÐ±ÑĢÐ°ÑĤ": 1062,
      "ĠÐ¾Ð¶": 1063,
      "Ð¸ÐµÐ¼": 1064,
      "ÑĩÐ¸Ð²": 1065,
      "Ð²Ð¾": 1066,
      "ÑĨÑĭ": 1067,
      "ÐµÐ¹ÑĩÐ°Ñģ": 1068,
      "ĠÐŀÑĤ": 1069,
      "ĠÐ¿Ð¾ÑĩÑĤÐ¸": 1070,
      "Ð°Ð´ÑĨ": 1071,
      "ĠÐ¿Ð¾Ð»Ð¾Ð¶": 1072,
      "ĠÑĥÑĤ": 1073,
      "ĠÐ´Ð¾Ð±ÑĢ": 1074,
      "ĠÐ¸Ð³": 1075,
      "Ð½ÑıÐ»": 1076,
      "ĠÐµÐ´": 1077,
      "Ð¾Ð¶Ð´": 1078,
      "ÐºÐ°Ñı": 1079,
      "ÑĩÐµ": 1080,
      "ĠÐļÐ»Ð¸Ð¼": 1081,
      "ĠÑĥÑģÐ¿": 1082,
      "ĠÑĤÐ¾ÑĢ": 1083,
      "ĠÐ²ÑĭÐ¿": 1084,
      "Ð¼Ðµ": 1085,
      "ĠÐ¶Ð¸Ð·Ð½Ð¸": 1086,
      "Ð¾Ð¹Ð´": 1087,
      "Ð°ÐµÐ¼": 1088,
      "ĠÑħÐ¾Ð´": 1089,
      "ĠÑģÐºÐ¾ÑĢ": 1090,
      "ĠÐ»ÑİÐ´Ð¸": 1091,
      "ĠÐ²Ð¾ÑĢ": 1092,
      "ÑİÐ±": 1093,
      "ĠÑĤÐ¾ÑĩÐ½Ð¾": 1094,
      "ĠÐ¿ÑĢÐ¾ÑĪ": 1095,
      "ĠÐ·Ð°Ð½": 1096,
      "ÑģÑĤÐ²ÐµÐ½Ð½Ð¾": 1097,
      "ĠÐ´Ð²Ð°": 1098,
      "ÐµÐºÐ¾": 1099,
      "Ð¾ÑĪÐ°Ð´": 1100,
      "Ð¾Ð·Ñı": 1101,
      "ÑĥÑĪÐºÐ°": 1102,
      "ĠÐ´ÐµÑĤ": 1103,
      "ĠÑģÐ¾Ð²ÑģÐµÐ¼": 1104,
      "ĠÐºÑĢÐ¸Ðº": 1105,
      "ĠÐ²Ð¾Ð´": 1106,
      "ĠÐ¾Ð±ÑĬ": 1107,
      "ĠÐ¿ÑĢÐµÐ¶": 1108,
      "ĠÐ¿ÑĢÐ¸Ð´": 1109,
      "ÐµÐ½ÑĤ": 1110,
      "ÐµÐ²Ð¸Ñĩ": 1111,
      "ĠÐ²ÑģÐº": 1112,
      "ĠÐ´ÑĢÑĥÐ³Ð¾Ð¹": 1113,
      "ĠÐ²ÐµÑģÑĮ": 1114,
      "ĠÐ¿Ð¾Ñħ": 1115,
      "ĠÐ¿ÑĢÐ¾ÑģÑĤ": 1116,
      "ĠÑĥÐ´Ð¸Ð²": 1117,
      "ĠÐ²Ð¾Ð¿ÑĢÐ¾Ñģ": 1118,
      "ÐµÐ¹ÑģÑĤÐ²": 1119,
      "ĠÐłÐ°Ð·": 1120,
      "ĠÐºÐ°Ð¶Ð´": 1121,
      "ĠÐ¿ÑĢÐ¸ÑĪ": 1122,
      "ĠÐ¼Ð¾Ð¶Ð½Ð¾": 1123,
      "ÐºÐ¸Ðµ": 1124,
      "ÑıÐ³": 1125,
      "ĠÐ¿ÑĢÐ¾Ð³": 1126,
      "ÑĤÐ¾Ñĩ": 1127,
      "ĠÑģÐºÐ°Ð¶": 1128,
      "ÑĨÐµÐ²": 1129,
      "ĠÐ¶Ð°Ð»": 1130,
      "ĠÐ¾ÑĤÐ´": 1131,
      "ÑĥÑĤÑĮ": 1132,
      "Ð¾Ð²Ð¾ÑĢÐ¸Ð»": 1133,
      "ÐµÑģÑĤÑĮ": 1134,
      "ĠÐĴÐ°ÑĢ": 1135,
      "ĠÐ±ÑĭÐ²": 1136,
      "ĠÐ¾ÑģÑĤÐ°Ð½Ð¾Ð²": 1137,
      "ÑĢÑĥÐ¶": 1138,
      "Ñį": 1139,
      "ĠÐĸ": 1140,
      "ĠÐ¼ÐµÐ¶Ð´Ñĥ": 1141,
      "ĠÐ¿ÑĢÐ¾ÑĤÐ¸Ð²": 1142,
      "ĠÐ²Ð·Ð´": 1143,
      "ĠÑģÐ²Ð¾ÐµÐ³Ð¾": 1144,
      "ÐµÑĢÐ²": 1145,
      "Ð¾ÑĤÑĮ": 1146,
      "ÑĢÐ°Ð½ÑĨ": 1147,
      "Ð¾Ð²Ð°ÑĤÑĮ": 1148,
      "ĠÑĤÑıÐ¶": 1149,
      "ĠÑįÑĤÐ¾Ð¹": 1150,
      "Ð»Ð¸Ðº": 1151,
      "ÑĥÐµÑĤ": 1152,
      "ĠÐ¿Ð»ÐµÑĩ": 1153,
      "ĠÑĪÐ°Ð³": 1154,
      "ÑħÐ²Ð°ÑĤ": 1155,
      "ĠÐ´ÐµÑĢÐµÐ²": 1156,
      "Ð»Ð¸Ð½": 1157,
      "Ð»ÐµÐ½Ð½Ð¾": 1158,
      "ĠÑģÐ»ÑĥÑĪ": 1159,
      "ÐĴ": 1160,
      "ĠÑĥÐ¶Ð°Ñģ": 1161,
      "ĠÐ´Ð²Ð¾ÑĢ": 1162,
      "Ð¾Ð½Ð¾Ð²": 1163,
      "Ð»ÑĮ": 1164,
      "Ð¶Ðµ": 1165,
      "ĠÐ½ÐµÐ¼Ñĥ": 1166,
      "Ð¾Ð¶Ð½Ð¾": 1167,
      "ĠÐ´Ð¾ÑģÑĤ": 1168,
      "Ð¼Ð°": 1169,
      "ĠÐ»Ð¾ÑĪÐ°Ð´": 1170,
      "ĠÐ±Ð¾ÑĢ": 1171,
      "ĠÐĲÑĢ": 1172,
      "ĠÐ¿ÑĢÐ¾Ð¸Ð·": 1173,
      "ĠÐŀÐ´": 1174,
      "ĠÐ´Ð¾Ðº": 1175,
      "ĠÐ·Ð´ÐµÑģÑĮ": 1176,
      "ĠÐ²ÑģÐµÐ³Ð¾": 1177,
      "ÑıÐ»Ð°": 1178,
      "ĠÑħÐ¾ÑĢÐ¾ÑĪÐ¾": 1179,
      "ĠÐ¿Ð°Ð»ÑĮ": 1180,
      "ÑıÐ»ÑģÑı": 1181,
      "ĠÐ¿ÑĢÐ¾Ð²": 1182,
      "ĠÑģÐµÐ¹ÑĩÐ°Ñģ": 1183,
      "ĠÐ³Ð¾ÑĢÐ¾Ð´": 1184,
      "ÐµÐ½Ð½ÑĭÐµ": 1185,
      "Ð¾Ð²Ð°Ð½": 1186,
      "ĠÐ³Ð¾Ð²Ð¾ÑĢÐ¸ÑĤÑĮ": 1187,
      "ÐµÐ½Ñĭ": 1188,
      "Ð°Ð³Ð¾": 1189,
      "ĠÑĤÐ¾Ð½": 1190,
      "ÐºÐ²": 1191,
      "ĠÐ¿Ð¾ÑģÑĤ": 1192,
      "ÑĦÐ¸ÑĨ": 1193,
      "ĠÐ¿Ð¾ÐºÐ°Ð·": 1194,
      "ĠÑĥÑĩ": 1195,
      "Ð½Ð¸ÐºÐ°": 1196,
      "ĠÐĿÐ°ÑĤ": 1197,
      "ĠÐºÐ½ÑıÐ·ÑĮ": 1198,
      "ĠÑģÐ¸Ð»": 1199,
      "ĠÐ½Ð¸ÐºÐ¾Ð³Ð´Ð°": 1200,
      "ÐµÑĢÐ³": 1201,
      "ÐµÑģÑĤÐ¸": 1202,
      "ĠÐ³Ð»Ð°Ð·Ð°Ð¼Ð¸": 1203,
      "ĠÐ¶Ð¸Ð·Ð½ÑĮ": 1204,
      "ÐµÑĩÐ½Ð¾": 1205,
      "ĠÐĺÐ²Ð°Ð½": 1206,
      "ÑĮÐµ": 1207,
      "ĠÑĤÐ°ÐºÐ¾Ð¹": 1208,
      "ÑĢÐ¸Ñĩ": 1209,
      "ĠÐ¼Ð°Ð»ÐµÐ½ÑĮ": 1210,
      "Ð·Ñı": 1211,
      "ĠÐ»ÐµÐ¶": 1212,
      "ĠÑįÑĤÑĥ": 1213,
      "Ð¼Ð°Ð½": 1214,
      "ĠÐ³Ð¾Ð²Ð¾ÑĢÐ¸ÑĤ": 1215,
      "ĠÑħÐ¾ÑĤÑı": 1216,
      "ĠÑħÐ¾Ð·Ñı": 1217,
      "ĠÑĩÐµÐ»Ð¾Ð²ÐµÐºÐ°": 1218,
      "ĠÐ±ÑĢÐ¾Ñģ": 1219,
      "ÐµÐ²ÑĪ": 1220,
      "Ð½Ð¸ÐºÐ¾Ð²": 1221,
      "ÐµÑĤÐ°": 1222,
      "ĠÐ¼Ð½": 1223,
      "ĠÐŁÑĮ": 1224,
      "ĠÐŁÐ¾": 1225,
      "ĠÑģÐ²Ð¾Ð¸": 1226,
      "Ð½Ð¸Ð¹": 1227,
      "ĠÐ¼Ð¸Ð½ÑĥÑĤÑĥ": 1228,
      "ĠÐ¼ÐµÐ´": 1229,
      "ÐµÐ¶Ð´": 1230,
      "Ð½Ð¸Ðµ": 1231,
      "Ð¸Ð½Ð¾Ð¹": 1232,
      "ĠÐ·Ð»": 1233,
      "ÑĥÐ¶Ð´": 1234,
      "ĠÑģÐ°Ð´": 1235,
      "ĠÐ´ÑĥÐ¼Ð°Ð»": 1236,
      "ÐĲ": 1237,
      "ÐµÐ³Ð¾Ð´": 1238,
      "Ð°ÑĪÐ°": 1239,
      "Ð»ÐµÐ´": 1240,
      "ĠÐ¼Ð¾Ð»Ñĩ": 1241,
      "ÑĭÐ²Ð°Ñı": 1242,
      "ĠÐ³Ð¾ÑģÑĤ": 1243,
      "ĠÐ¿Ð¾ÑĪ": 1244,
      "ĠÑĢÐ°Ð·Ð³Ð¾Ð²Ð¾ÑĢ": 1245,
      "ĠÐ¼Ð¾Ð³Ñĥ": 1246,
      "Ð»ÑĥÑĪ": 1247,
      "ĠÐ²Ð¸Ð´ÐµÐ»": 1248,
      "Ð°ÐµÑĤÐµ": 1249,
      "ÐµÐ½Ð½Ð¾Ð¹": 1250,
      "ĠÐ½ÐµÐ¾Ð±": 1251,
      "ĠÑĢÐ°Ð±Ð¾ÑĤ": 1252,
      "ĠÐŁÐ¾Ð´": 1253,
      "ĠÐ±ÐµÑģÐ¿": 1254,
      "ĠÐºÐ½": 1255,
      "Ð²Ð¾Ð»": 1256,
      "ÐµÐ·Ð¶": 1257,
      "ÑģÑĤÐ°Ð»": 1258,
      "ĠÐ³ÑĢÐ°ÑĦ": 1259,
      "Ð°ÐµÑĪÑĮ": 1260,
      "ĠÐ¾ÑĤÐ¿": 1261,
      "?\"": 1262,
      "ĠÐĺÐ·": 1263,
      "ĠÐ´Ð²ÐµÑĢÑĮ": 1264,
      "ĠÑģÐ²Ð¾Ðµ": 1265,
      "ĠÐŁÐ°Ð²": 1266,
      "ÐµÑı": 1267,
      "ÐµÐ½Ð¾": 1268,
      "ĠÐĵÑĢÐ¸Ð³Ð¾ÑĢÐ¸Ð¹": 1269,
      "Ð½Ð¸Ñĩ": 1270,
      "ÐµÐ½Ð¸Ñİ": 1271,
      "ĠÐ·Ð°ÑĢ": 1272,
      "ĠÑĤÐ¾ÑĤÑĩÐ°Ñģ": 1273,
      "Ð¾Ð½Ð°": 1274,
      "ÐºÐ¸Ð¼": 1275,
      "ÐµÐ»ÑĮÐ·Ñı": 1276,
      "ĠÑıÐ²": 1277,
      "Ð°Ð¶ÐµÑĤÑģÑı": 1278,
      "ÑĭÐ²Ð°Ð»": 1279,
      "ĠÑģÐ¾Ð³": 1280,
      "ÑıÑħ": 1281,
      "Ð°ÑĤÑĢ": 1282,
      "ĠÐ³Ð¾ÑģÐ¿Ð¾Ð´": 1283,
      "Ð¾ÑĤÐ¾Ð¼": 1284,
      "ĠÑģÑĤÑĢÐ°": 1285,
      "ĠÐ²ÐµÑĩÐµÑĢ": 1286,
      "ĠÐ¿ÑĢÐµÐ´ÑģÑĤÐ°Ð²": 1287,
      "ÑİÑī": 1288,
      "ĠÑĩÐµÑĤ": 1289,
      "ĠÐ¼Ð°ÑĤÑĮ": 1290,
      "Ð½Ð°Ðº": 1291,
      "ĠÑģÐµÐ¼": 1292,
      "ĠÐ²Ð¾ÑģÐº": 1293,
      "ĠÐ¿Ð¾Ð¶Ð°Ð»": 1294,
      "ĠÐºÐ°Ð·Ð°Ð»Ð¾ÑģÑĮ": 1295,
      "ÐµÐ·Ð´": 1296,
      "ĠÑĥÐ»Ð¸": 1297,
      "ĠÐ±Ð¾": 1298,
      "ĠÐ»ÑĥÑĩÑĪÐµ": 1299,
      "Ð¸Ð²Ð°ÑĤÑĮ": 1300,
      "ĠÐ²Ð¾Ð¹": 1301,
      "ĠÐ´ÐµÑĢÐ¶": 1302,
      "ÐŁ": 1303,
      "ĠÑģÐ¾Ð²ÐµÑĢÑĪÐµÐ½Ð½Ð¾": 1304,
      "ĠÐ¿Ð¾ÑģÐ¼Ð¾ÑĤÑĢ": 1305,
      "Ð»ÑİÐ´": 1306,
      "ĠÐ¿Ð¸ÑģÑĮ": 1307,
      "ĠÑģÑĤÑĢÐ°ÑĪ": 1308,
      "ĠÐ²Ð·Ð³Ð»Ñı": 1309,
      "ĠÐ½Ð°ÑĩÐ°Ð»": 1310,
      "ĠÑģÐ»ÐµÐ·": 1311,
      "ĠÐ±Ð»Ð°Ð³": 1312,
      "ĠÑħÐ»": 1313,
      "ĠÑģÐ¸Ð»ÑĮ": 1314,
      "ÑĨÑĥ": 1315,
      "ĠÐ¿ÑĢÑıÐ¼": 1316,
      "ĠÐ¤ÐµÐ´": 1317,
      "Ð»ÐµÑĤ": 1318,
      "ĠÐ±ÐµÐ´": 1319,
      "âĢĶ": 1320,
      "ÐµÑģÑĤÐ¾": 1321,
      "ÑĢÐ¾": 1322,
      "ĠÐ´ÐµÐ¹ÑģÑĤÐ²": 1323,
      "ĠÐ²Ð½": 1324,
      "Ð»ÑıÐ»": 1325,
      "ÑģÐºÐ¸Ñħ": 1326,
      "ĠÐ½Ð°ÐºÐ¾Ð½ÐµÑĨ": 1327,
      "ÐµÐ½ÐµÑĢ": 1328,
      "ĠÐļÐ¾Ð³Ð´Ð°": 1329,
      "Ð¸ÐºÐ°": 1330,
      "ĠÐ´Ð¾Ñģ": 1331,
      "Ð»Ð¾Ð¶": 1332,
      "ĠÐ¾Ð±ÑĢÐ°ÑĤ": 1333,
      "ÐµÐ½Ð¸Ð¹": 1334,
      "ĠÐ±ÑĭÑģÑĤÑĢÐ¾": 1335,
      "ĠÐ´Ð°Ð²": 1336,
      "ĠÑģÑĤÐ°Ð½": 1337,
      "ĠÐ¿ÑĢÐ¸Ñħ": 1338,
      "ĠÐ¿Ð¾Ð»ÑĥÑĩ": 1339,
      "ĠÐ¿ÑĢÐ¸ÑıÑĤ": 1340,
      "ĠÑĤÐ¸ÑħÐ¾": 1341,
      "Ð»ÐµÐ½Ð¸Ðµ": 1342,
      "Ð¼Ð¾": 1343,
      "ĠÐºÑĥÐ´Ð°": 1344,
      "Ð°ÑĤÐµÐ»ÑĮÐ½Ð¾": 1345,
      "ÑĢÐµÐ·": 1346,
      "ÑĢÐ°Ð´": 1347,
      "ĠÑĢÑĥÐ±": 1348,
      "ÐµÐ²Ð½Ð°": 1349,
      "Ð½ÑĥÐ»Ð°ÑģÑĮ": 1350,
      "ĠÐŀÐ½Ð¸": 1351,
      "ĠÐľÑĭ": 1352,
      "ĠÑĤÐ°ÐºÐ¾Ðµ": 1353,
      "Ð¾Ð±ÑĢÐ°Ð·": 1354,
      "ĠÐ´Ð¾Ð¼Ð°": 1355,
      "ĠÐ½Ð¸ÐºÐ°Ðº": 1356,
      "ĠÐ½Ð¾Ñģ": 1357,
      "ĠÐ¿ÑĢÐ¾Ñĩ": 1358,
      "ĠÐ³Ð¾Ð´": 1359,
      "ĠÐŁÐ¾Ñģ": 1360,
      "ÐµÐ²Ð°": 1361,
      "ĠÐĴÐ°Ñģ": 1362,
      "ÑĥÑīÐµ": 1363,
      "Ð½Ð°Ñĩ": 1364,
      "ĠÐ¿ÑĢÐ¾Ð±": 1365,
      "Ð½ÑĥÑĤ": 1366,
      "ĠÐ¾ÑģÐ¾Ð±ÐµÐ½Ð½Ð¾": 1367,
      "ĠÐ·Ð½Ð°Ð»": 1368,
      "ĠÐ¾ÑĦÐ¸ÑĨ": 1369,
      "ĠÐ²ÑģÑİ": 1370,
      "Ð°ÑĢÑĮ": 1371,
      "ĠÐ³ÑĢÐ¾Ð¼": 1372,
      "ĠÐ¿ÑĢÐ¸Ð·": 1373,
      "ĠÑģÐ²Ð¾Ð¹": 1374,
      "ĠÐ¾Ð´Ð½Ð¾": 1375,
      "Ð¸ÑģÐº": 1376,
      "ĠÐ²Ð¼ÐµÑģÑĤÐµ": 1377,
      "ĠÐ²Ð·Ð³Ð»ÑıÐ´": 1378,
      "ĠÐ´Ð°Ð»": 1379,
      "ÐµÐ½Ð½ÑĭÑħ": 1380,
      "ĠÐ¾Ð±ÑĢÐ°Ð·": 1381,
      "ĠÐºÑĢÐ¾Ð²": 1382,
      "ĠÐ´Ð¾Ð»Ð³Ð¾": 1383,
      "ĠÐºÑĥÑĢ": 1384,
      "ĠÐ·Ð´": 1385,
      "ÑĭÐ½": 1386,
      "ÐµÐ½Ð½ÑĭÐ¼": 1387,
      "ĠÐ¾ÑĤÑĩ": 1388,
      "ĠÐ·Ð½Ð°ÐºÐ¾Ð¼": 1389,
      "Ð¸ÐºÐ¸": 1390,
      "ÑģÐºÐ¸Ðµ": 1391,
      "Ð¾Ð²Ð¸Ñĩ": 1392,
      "ĠÑģÑĥÐ´": 1393,
      "ĠÐ¼ÐµÑģÑĤ": 1394,
      "ĠÐ¿ÑıÑĤ": 1395,
      "ĠÑģÐ½Ð¾Ð²Ð°": 1396,
      "ĠÑįÑĤÐ°": 1397,
      "ĠÑģÐ²Ð¾Ð¸Ñħ": 1398,
      "ĠÑģÐ»ÑĥÐ¶": 1399,
      "ĠÐ¼Ð¾ÑĢ": 1400,
      "Ð½ÐµÐ¼": 1401,
      "ÑĤÐ°ÐºÐ¸": 1402,
      "ÑĪÐ¸ÑģÑĮ": 1403,
      "ĠÐ¼ÑĭÑģÐ»": 1404,
      "Ð¾Ð½ÑĮ": 1405,
      "ĠÑĤÑĢÐ¸": 1406,
      "ĠÑħÐ¾Ð»Ð¾Ð´": 1407,
      "Ð¾Ð²Ð¾Ð¹": 1408,
      "ÑĥÑİÑī": 1409,
      "Ð»ÐµÐ½Ð¸Ñı": 1410,
      "ĠÐ²ÑĭÑĢÐ°Ð¶": 1411,
      "ÑıÑĩ": 1412,
      "ĠÐ¿ÑĢÐ¾ÑģÑĤÐ¾": 1413,
      "Ð»ÑİÑĩ": 1414,
      "ĠÑĩÐ¸ÑĤ": 1415,
      "ÐĶ": 1416,
      "ĠÐ½ÐµÐ»ÑĮÐ·Ñı": 1417,
      "ĠÑģÐ²Ð¾Ð¸Ð¼": 1418,
      "ĠÑģÐ¿Ð¾ÐºÐ¾Ð¹": 1419,
      "ÑıÐ¼Ð¸": 1420,
      "Ð¾Ð±Ð½Ð¾": 1421,
      "Ð²Ð°": 1422,
      "ÐµÐ½Ð½Ð¾Ð³Ð¾": 1423,
      "ĠÐ±ÐµÑĢ": 1424,
      "ĠÐºÐ¾ÑĤÐ¾ÑĢÐ¾Ð¹": 1425,
      "ĠÐ¿Ð¾Ð²ÑĤÐ¾ÑĢ": 1426,
      "ĠÑĢÐ°Ð·Ð´": 1427,
      "ĠÐ²Ð½Ð¸Ð¼": 1428,
      "ĠÐ±Ð°Ð±": 1429,
      "Ð½Ð¾Ñģ": 1430,
      "ĠÐ·Ð°Ð»": 1431,
      "ÑİÑĪ": 1432,
      "ĠÑĪÐ¸ÑĢ": 1433,
      "ĠÑĤÑĢÑĥÐ´": 1434,
      "ĠÐ¼Ð¾Ñı": 1435,
      "ĠÑĤÐµ": 1436,
      "ĠÐľÐ¸Ñħ": 1437,
      "Ð¸ÐºÐ¾Ð²": 1438,
      "ĠÐ¿ÑĢÐ¸Ð¿": 1439,
      "ĠÐ¡ÑĤÐµÐ¿": 1440,
      "ĠÐ¾ÑĤÐ²ÐµÑĤÐ¸Ð»": 1441,
      "ĠÑĤÐ¾Ð¼Ñĥ": 1442,
      "ÑĥÐ»ÑĮ": 1443,
      "Ð´Ð°ÑĤ": 1444,
      "ĠÐ¿Ð¾Ð²ÐµÑĢ": 1445,
      "ĠÑĥÑģÐ»": 1446,
      "ĠÑĢÑĥÑģ": 1447,
      "ĠÐŁÑĮÐµÑĢ": 1448,
      "ĠÐĶÐ°Ð²": 1449,
      "ĠÐĹÐ°": 1450,
      "ĠÑĨÐµÐ»": 1451,
      "Ð°ÐºÐ¾Ð²": 1452,
      "ÑģÑĤÐ²Ð¾Ð¼": 1453,
      "ĠÐ¿Ð¾Ð´ÑĥÐ¼Ð°Ð»": 1454,
      "ĠÐ¿ÑĢÐµÐº": 1455,
      "ĠÐ½ÑĥÐ¶Ð½Ð¾": 1456,
      "ĠÐ½ÐµÑĩ": 1457,
      "ĠÑģÑĢÐµÐ´": 1458,
      "ÐµÑĢÐ¿": 1459,
      "ÐµÑĢÐ´": 1460,
      "Ð½Ð°ÐºÐ¾": 1461,
      "ĠÐ²Ð¿ÐµÑĢÐµÐ´": 1462,
      "ĠÐ²Ð¾Ð»Ð¾Ñģ": 1463,
      "Ð³Ð¸": 1464,
      "ÑıÐ»Ð¸": 1465,
      "ĠÐĽÐµÐ²": 1466,
      "Ð¼Ñĭ": 1467,
      "ÑĭÐºÐ½Ð¾Ð²": 1468,
      "ĠÐºÐ¾ÑĤÐ¾ÑĢÐ°Ñı": 1469,
      "ÑģÑĤÐ°": 1470,
      "ĠÑģÐ¿ÑĢÐ°ÑĪ": 1471,
      "ĠÐ¡Ðº": 1472,
      "ĠÐľÐ½Ðµ": 1473,
      "ĠÐ¶Ð´": 1474,
      "ĠÑģÑĤÐ°Ð»Ð¾": 1475,
      "ĠÐºÐ¾ÑĤÐ¾ÑĢÐ¾Ð³Ð¾": 1476,
      "ĠÐºÑĢÐ¸Ñĩ": 1477,
      "Ð»Ð¸Ñĩ": 1478,
      "ĠÐºÐ°Ð¼": 1479,
      "ĠÐ¸Ð³ÑĢ": 1480,
      "ĠÐ³Ð¾Ð»Ð¾ÑģÐ¾Ð¼": 1481,
      "ĠÐ³Ð¾Ð²Ð¾ÑĢÐ¸Ð»Ð°": 1482,
      "Ð¾Ð´ÑĥÑĪ": 1483,
      "Ð°ÑĢÐ¾Ð²": 1484,
      "ĠÑģÑĤÐ¾ÑıÐ»": 1485,
      "ĠÑıÑģ": 1486,
      "ÐºÐ¸Ñħ": 1487,
      "ĠÑģÐµÑĢÐ´ÑĨÐµ": 1488,
      "ĠÐºÐ°Ð¶ÐµÑĤÑģÑı": 1489,
      "ĠÐ¿ÑĢÐ¾Ðº": 1490,
      "ĠÐ³Ð»ÑĥÐ¿": 1491,
      "ÐµÐ½ÑĮÐºÐ°": 1492,
      "ĠÐŀÐ±": 1493,
      "ĠÐ¾Ð¶Ð¸Ð´": 1494,
      "ĠÐ¾ÑĤÐµÑĨ": 1495,
      "ĠÑħÐ¾ÑĤÑĮ": 1496,
      "Ð°Ð½Ð¾": 1497,
      "ĠÐ¿ÑĥÑģÑĤ": 1498,
      "Ð¾Ð»Ñĩ": 1499,
      "ÑĭÐ¿": 1500,
      "ĠÐ¿Ð¾ÑĪÐµÐ»": 1501,
      "ĠÐŁÐµÑĤÑĢÐ¾Ð²": 1502,
      "ÐµÐ½Ð½Ð¾Ðµ": 1503,
      "ĠÑģÐ±": 1504,
      "ĠÑĢÑıÐ´": 1505,
      "Ð°Ð½Ð½Ð¾": 1506,
      "ĠÑĥÐ²ÐµÑĢ": 1507,
      "ĠÐ½Ð°ÑħÐ¾Ð´": 1508,
      "Ð²Ð°Ð»": 1509,
      "ÑĤÐµÑĢÐµÑģ": 1510,
      "ĠÐĺÐ²Ð°Ð½Ð¾Ð²Ð¸Ñĩ": 1511,
      "Ðļ": 1512,
      "ĠÐ¾ÑĤÑĤ": 1513,
      "ĠÐºÑĢÑĥÐ³": 1514,
      "ĠÐ¿ÑĢÐ¾Ð´Ð¾Ð»Ð¶Ð°Ð»": 1515,
      "Ð»Ð¸ÑĪ": 1516,
      "ĠÑĢÐ°Ð·Ð±": 1517,
      "ĠÑħÑĢ": 1518,
      "ĠÐ²ÐµÑĤ": 1519,
      "ĠÐ¾ÑĤÐºÑĢÑĭ": 1520,
      "ÑĢÐ°Ð½ÑĨÑĥÐ·": 1521,
      "Ð½ÐµÐ²": 1522,
      "ĠÐ²ÑĭÑħÐ¾Ð´": 1523,
      "ĠÑįÑĤÐ¸Ñħ": 1524,
      "ÑĢÐ¾Ñĩ": 1525,
      "Ð²ÐµÑĢÐ´": 1526,
      "Ð½Ð¾ÑĪ": 1527,
      "ĠÐ²Ð¾Ð·Ð²": 1528,
      "ÑģÑĥÐ´": 1529,
      "ĠÐ½Ð¾Ð³Ð¸": 1530,
      "ĠÑĤÐ²Ð¾": 1531,
      "ĠÐ²ÑĭÑĪ": 1532,
      "Ð¾ÑĤÐ°": 1533,
      "Ð¡": 1534,
      "ĠÐ³Ð»ÑıÐ´Ñı": 1535,
      "Ð¸Ð²ÑĪÐ¸ÑģÑĮ": 1536,
      "ĠÐ´Ð½Ñı": 1537,
      "ĠÐ¾ÑĤÐ²ÐµÑĩÐ°Ð»": 1538,
      "ÑĤÐ¸ÑĢ": 1539,
      "),": 1540,
      "ÑĭÐ»ÑĮ": 1541,
      "ĠÐ¿ÑĢÐ¾Ð¿": 1542,
      "ĠÐ´ÑĥÑħ": 1543,
      "Ð¸ÐµÑħ": 1544,
      "ĠÐ¿Ð¾ÑĩÐµÐ¼Ñĥ": 1545,
      "ĠÐ¸Ð·Ð²ÐµÑģÑĤ": 1546,
      "ĠÐ¼ÐµÑĢ": 1547,
      "ÑĤÐ¾ÑĢÐ°": 1548,
      "ĠÐ´Ð°Ð¼": 1549,
      "ĠÐ´ÑĥÑĢ": 1550,
      "ĠÐ¿ÑĢÑıÐ¼Ð¾": 1551,
      "ÑģÑĤÐ²Ðµ": 1552,
      "ĠÐ¿ÐµÑĩ": 1553,
      "ĠÐ¸Ð·Ð¼": 1554,
      "ĠÐ¾Ð´Ð½Ð°": 1555,
      "ĠÐ¿ÑĢÐ¸Ð¼": 1556,
      "ĠÐ²ÑĭÐ±": 1557,
      "ĠÑģÐ¿ÑĢÐ¾ÑģÐ¸Ð»Ð°": 1558,
      "ĠÐ»ÑİÐ±Ð¾Ð²": 1559,
      "Ð¸ÑĢÐ°": 1560,
      "ĠÐŁÐ¾Ð»": 1561,
      "ĠÐ¾ÑĢ": 1562,
      "Ð¼ÐµÑĤ": 1563,
      "ĠÑĤÐ°": 1564,
      "Ð°ÑĤÐ¸": 1565,
      "Ð½ÐµÑģ": 1566,
      "ĠÑĢÐ°ÑģÑģÐºÐ°Ð·": 1567,
      "Ð¸Ð½ÑĥÐ»": 1568,
      "Ð¸ÑĤÑĢ": 1569,
      "ĠÐ³ÐµÐ½ÐµÑĢ": 1570,
      "ĠÐ¸ÑģÐ¿ÑĥÐ³": 1571,
      "ÐµÐ³Ð¾Ð´Ð½Ñı": 1572,
      "ĠÑģÐ´": 1573,
      "ĠÐ½ÐµÐ·": 1574,
      "ĠÑįÑĤÐ¸Ð¼": 1575,
      "ĠÑģÐ¾Ð·": 1576,
      "ĠÐ½Ð°Ð±": 1577,
      "ÐµÐ»ÐµÐ½": 1578,
      "Ð°Ð´ÑĨÐ°ÑĤÑĮ": 1579,
      "Ð¾Ð»ÑĮÐ·": 1580,
      "ĠÐ´Ð°Ð²Ð½Ð¾": 1581,
      "ĠÐ²ÐµÑģÐµÐ»": 1582,
      "ĠÐ¼Ð°Ð»ÑĮ": 1583,
      "ÐµÑĢÐº": 1584,
      "ÐºÐ¾Ð³Ð¾": 1585,
      "ĠÑĪÐµÐ»": 1586,
      "ĠÐ´Ð¾Ð²Ð¾Ð»ÑĮ": 1587,
      "Ð¸ÑĨÑĭ": 1588,
      "ĠÑĩÐ°": 1589,
      "ÑİÐ´Ð°": 1590,
      "Ð¾ÑģÐºÐ²": 1591,
      "Ð°Ð½Ð´ÑĢ": 1592,
      "Ð¾Ð»Ð¾": 1593,
      "Ð¾ÑĢÐ°": 1594,
      "Ð¿Ð¾Ð´": 1595,
      "ĠÐ¿ÑĢÐµÐ¶Ð´Ðµ": 1596,
      "Ð¸Ð¾Ð½": 1597,
      "ĠÑĢÐµÐ·": 1598,
      "ĠÐ¾Ð´Ð½Ð¾Ð¹": 1599,
      "Ðŀ": 1600,
      "ÑĢÐ¸Ðº": 1601,
      "ĠÐ³Ð»ÑĥÐ±": 1602,
      "ĠÐĲÐ½Ð´ÑĢÐµÐ¹": 1603,
      "ĠÐºÑĢÐµÐ¿": 1604,
      "ĠÑĢÑĭ": 1605,
      "ĠÐ²ÑĭÐ´": 1606,
      "ÑĢÐ°Ñĩ": 1607,
      "ĠÐ´ÐµÑģÑı": 1608,
      "ĠÐ·Ð½Ð°ÐµÑĤ": 1609,
      "ĠÐ½Ð°ÑĢÐ¾Ð´": 1610,
      "ĠÐĲÑħ": 1611,
      "ĠÐ³Ð»Ð°Ð²": 1612,
      "Ð¾Ð±ÑĢÐ°Ð¶": 1613,
      "ĠÐ½Ð°Ð·Ð°Ð´": 1614,
      "Ġ1": 1615,
      "Ð½ÐµÐ³Ð¾": 1616,
      "ÑĤÑĢÐ°": 1617,
      "ĠÐ±ÑĥÐ¼": 1618,
      "ĠÐºÐ¾Ð½Ñĩ": 1619,
      "Ð»ÐµÐº": 1620,
      "ĠÐ¾Ñħ": 1621,
      "ÐµÐ½Ð½Ð°Ñı": 1622,
      "ÐµÐºÐ¾ÑĤÐ¾ÑĢ": 1623,
      "ĠÐ´Ð¸Ð²": 1624,
      "ĠÐ²ÑĭÑĪÐµÐ»": 1625,
      "ĠÐ¾ÑĦÐ¸ÑĨÐµÑĢ": 1626,
      "ĠÐ´Ð»Ð¸Ð½": 1627,
      "ĠÐ½ÐµÐ¶": 1628,
      "ÑĩÐµÑĤ": 1629,
      "ĠÐºÑĥÐ¿": 1630,
      "ĠÑĢÐµÐ²": 1631,
      "ĠÐ»Ð°Ñģ": 1632,
      "ĠÐķÐ³Ð¾": 1633,
      "ĠÐĲÐ»ÐµÐºÑģÐ°Ð½Ð´ÑĢ": 1634,
      "ĠÑģÑĥÐ¼": 1635,
      "ĠÐ¿Ð¾Ð¹": 1636,
      "ĠÑĢÐµÑĩ": 1637,
      "ÐºÐ¾Ðµ": 1638,
      "ĠÐ¿Ð¸Ñģ": 1639,
      "ĠÐ½ÐµÐ¿ÑĢÐ¸ÑıÑĤ": 1640,
      "ĠÑĨÐ²ÐµÑĤ": 1641,
      "Ð¢": 1642,
      "ĠÐ¾Ð´Ð½Ð¾Ð³Ð¾": 1643,
      "ĠÐ´Ð²Ð¸Ð¶": 1644,
      "ĠÑĤÐµÐ»": 1645,
      "ĠÐ¼Ð¸ÑĢ": 1646,
      "ĠÐºÐ°ÐºÐ¸Ðµ": 1647,
      "Ð·Ð°": 1648,
      "ĠÐŁÐµÑĢÐµÐ´": 1649,
      "ĠÐ²Ð¾ÑģÐ¿": 1650,
      "ÐµÐ»ÐµÐ¹": 1651,
      "ĠÐ¡Ð¿": 1652,
      "ĠÑģÐ¾Ð»Ð´Ð°ÑĤ": 1653,
      "ĠÐ²ÐµÐ»Ð¸Ðº": 1654,
      "Ð°Ð½ÑĮ": 1655,
      "Ð»Ð¸ÑĪÐºÐ¾Ð¼": 1656,
      "ĠÑģÐ°Ð¼Ð°": 1657,
      "ĠÑģÐ¾Ð»Ð½": 1658,
      "ĠÐ¿ÑĢÐ¸ÐµÑħ": 1659,
      "ĠÑĤÐ¾Ð²Ð°ÑĢ": 1660,
      "ĠÐ²Ð¾Ð·Ð´": 1661,
      "ĠÐľÐ°Ðº": 1662,
      "ĠÐºÐ¾Ð½ÐµÑĩÐ½Ð¾": 1663,
      "Ð¾Ð·Ð²": 1664,
      "ĠÑĢÑĥÐºÐ°Ð¼Ð¸": 1665,
      "ĠÐ·Ð°Ñĩ": 1666,
      "ÐµÑĢÐ±": 1667,
      "ĠÐľÐ¾ÑģÐºÐ²": 1668,
      "ĠÐ»Ð¸ÑĨÐ°": 1669,
      "ĠÑģÐ¼ÐµÑĢ": 1670,
      "ĠÐ¿ÑĢÐ¸ÑħÐ¾Ð´": 1671,
      "ĠÐ¿ÑĢÐ¸Ñĩ": 1672,
      "ĠÐºÐ¾Ð³Ð¾": 1673,
      "ÑģÑıÑĩ": 1674,
      "ĠÐĿÐµÑħ": 1675,
      "ÐºÐ¾Ñİ": 1676,
      "ÑıÑģÐ½": 1677,
      "ÑĪÐµÐ³Ð¾": 1678,
      "ĠÑĢÑĥÐº": 1679,
      "ĠÑĥÐ·Ð½": 1680,
      "ĠÐºÐ½Ð¸Ð³": 1681,
      "ĠÐ¾Ð±ÐµÐ´": 1682,
      "ĠÑģÐµÑģÑĤ": 1683,
      "Ð¾Ð±Ð¾Ð´": 1684,
      "ĠÐ¢ÑĢ": 1685,
      "ĠÐ³Ð¾Ð»Ð¾Ð²Ð¾Ð¹": 1686,
      "ĠÐ½Ð¸Ð¼Ð¸": 1687,
      "ĠÐ¿ÑĢÐ¸Ð³": 1688,
      "ĠÐ¸Ð¼ÐµÐ½Ð½Ð¾": 1689,
      "ĠÑİ": 1690,
      "ÑĥÐ³Ð¾": 1691,
      "ĠÑıÑĢ": 1692,
      "Ð¾Ð»Ð½": 1693,
      "ĠÐ°Ð½": 1694,
      "ĠÐ¾Ð½Ð¾": 1695,
      "ĠÐºÐ¾ÑĤÐ¾ÑĢÐ¾Ðµ": 1696,
      "ĠÐ²ÑĭÐ³": 1697,
      "ĠÑĥÑĤÑĢ": 1698,
      "Ð°Ð½Ñĭ": 1699,
      "ĠÑĪÐµÐ¿": 1700,
      "ĠÐ¾Ð·": 1701,
      "ĠÐ±ÑĥÐ´Ñĥ": 1702,
      "ĠÑĢÐµÐ±": 1703,
      "ĠÑģÑĩÐ°ÑģÑĤ": 1704,
      "?..": 1705,
      "ĠÐ²Ð½Ñĥ": 1706,
      "ĠÑĤÐµÑħ": 1707,
      "Ð¾ÑĦ": 1708,
      "Ð¸ÑĨÐ°": 1709,
      "ĠÑĤÐ¾Ð»Ð¿": 1710,
      "ĠÐ¼Ð°ÑĤÐµÑĢÐ¸": 1711,
      "Ð¾Ð½Ñĩ": 1712,
      "ĠÑģÐ»Ð¸ÑĪÐºÐ¾Ð¼": 1713,
      "ÑĨÐ¸Ð¸": 1714,
      "ĠÐ¼Ð¾ÐµÐ¹": 1715,
      "ÑĪÐµÐ¹": 1716,
      "ĠÐºÐ»": 1717,
      "ĠÐ½Ñĥ": 1718,
      "ĠÐ³Ð¾ÑĤÐ¾Ð²": 1719,
      "ĠÐ´ÐµÐ»Ð°ÑĤÑĮ": 1720,
      "ĠÐ¶Ð¸ÑĤÑĮ": 1721,
      "Ð¾Ð·ÑĮ": 1722,
      "ĠÑħÐ¾ÑĩÑĥ": 1723,
      "ĠÐ²ÑĭÑģÐ¾Ðº": 1724,
      "ĠÑģÐ¾Ð³Ð»Ð°Ñģ": 1725,
      "ĠÑĩÑĥÑĤÑĮ": 1726,
      "ĠÑĢÐ°ÑģÑģÐºÐ°Ð·ÑĭÐ²": 1727,
      "Ð¸Ð²Ð°ÑıÑģÑĮ": 1728,
      "ĠÐºÐ°Ð¿": 1729,
      "ĠÐĴÐµÐ´ÑĮ": 1730,
      "Ð¾Ð¿ÑĭÑĤ": 1731,
      "Ð»Ð¾Ð¼": 1732,
      "ÑģÐºÐ°": 1733,
      "ÐµÑģÑģ": 1734,
      "ĠÐ½Ð°Ð³": 1735,
      "Ð°Ð²ÑĪÐ¸Ð¹": 1736,
      "ĠÐ»ÐµÑģ": 1737,
      "ĠÐºÐ¾ÑĤÐ¾ÑĢÑĥÑİ": 1738,
      "Ð½ÐµÑĤ": 1739,
      "ĠÑģÑĩÐ¸ÑĤ": 1740,
      "ÑģÐºÐ°Ñı": 1741,
      "Ð½Ð¸Ñħ": 1742,
      "ĠÐķÑģÐ»Ð¸": 1743,
      "ĠÐ±Ð»Ð¸Ð·": 1744,
      "ĠÐ¿ÑĢÐµÐºÑĢÐ°Ñģ": 1745,
      "ĠÐ´Ð¾Ð»Ð¶ÐµÐ½": 1746,
      "ĠÐ²ÑģÐ¿Ð¾Ð¼Ð½": 1747,
      "ĠÐ¼Ð¾Ðµ": 1748,
      "ĠÐĴÐ°ÑĢÐ²Ð°ÑĢ": 1749,
      "Ð¸Ð½Ñı": 1750,
      "ĠÐ·Ð°Ñħ": 1751,
      "ĠÐºÐ¾Ð¼Ð½Ð°ÑĤÐµ": 1752,
      "ÑĪÐ¸Ðµ": 1753,
      "ĠÑĤÑĥ": 1754,
      "ÑģÑĤÑĮÑİ": 1755,
      "ĠÐ´Ð²Ðµ": 1756,
      "ĠÑĥÐ´Ð°ÑĢ": 1757,
      "ĠÐ½ÐµÐºÐ¾ÑĤÐ¾ÑĢ": 1758,
      "ĠÐ½ÐµÑİ": 1759,
      "ĠÑģÐ¼Ð¾ÑĤÑĢÐµÐ»": 1760,
      "ĠÑģÐ¾ÑģÑĤÐ¾": 1761,
      "ĠÐ¾ÑĤÑĨÐ°": 1762,
      "ĠÐ¾Ð±ÑĢÐ°Ñī": 1763,
      "ĠÐ¸Ð·Ð±": 1764,
      "ĠÐ¿Ð¾ÐºÐ°": 1765,
      "ĠÑģÐ¾Ð±Ð¾Ð¹": 1766,
      "ĠÐ»Ð°Ð´": 1767,
      "ĠÐ´Ð¾Ñĩ": 1768,
      "ĠÐµÑħ": 1769,
      "ĠÑģÐ¸Ð´ÐµÐ»": 1770,
      "Ð¸ÑģÑĤÐ¾": 1771,
      "ÑĥÑı": 1772,
      "ĠÐ³ÑĢÑĥÐ´": 1773,
      "Ð°Ð½Ð½ÑĭÐ¹": 1774,
      "ĠÐ·Ð½Ð°ÐµÑĤÐµ": 1775,
      "ĠÐŀÑĢ": 1776,
      "Ð¾ÑģÑĤÑĮÑİ": 1777,
      "Ð¸Ð²Ð°Ð»Ð°": 1778,
      "ĠÐĲÐ½Ð½Ð°": 1779,
      "ÐµÑĢÑĤÐ²": 1780,
      "ĠÐ¿ÑĢÐ¸Ð±Ð°Ð²": 1781,
      "Ð¯": 1782,
      "Ð²Ð¾Ð´": 1783,
      "Ð½Ð°ÑĤÑĮ": 1784,
      "ĠÐ´ÑĢÐ¾Ð¶": 1785,
      "ĠÐºÑĢÐµÑģÑĤ": 1786,
      "ĠÐ´Ð²ÐµÑĢÐ¸": 1787,
      "ÐµÐ¶Ð°Ð»": 1788,
      "Ð½Ð°ÑĤ": 1789,
      "ĠÐºÐ°ÐºÐ°Ñı": 1790,
      "Ð¸ÑĤÐ°": 1791,
      "ĠÑģÐ»Ð¾Ð²Ð¾": 1792,
      "ĠÐĴÐµÑĢ": 1793,
      "Ð¸Ð´Ð½Ð¾": 1794,
      "ĠÐłÐ¾ÑģÑĤ": 1795,
      "ÑģÐºÐ¾Ð¼": 1796,
      "ĠÐĿÐ°Ð´": 1797,
      "ĠÐ¿Ð¾Ð´Ð½ÑıÐ»": 1798,
      "ĠÐ´Ð²ÑĥÑħ": 1799,
      "ĠÐ¿ÑĢÐ¸ÐºÐ°Ð·": 1800,
      "Ð¾Ð²Ð°Ð»Ð°": 1801,
      "Ð½Ð¸ÐºÐ¸": 1802,
      "ĠÐ¸Ð½ÑĤÐµÑĢÐµÑģ": 1803,
      "ĠÐ²Ð·Ð´Ð¾Ñħ": 1804,
      "ĠÑīÐµÐº": 1805,
      ".--": 1806,
      "ĠÑģÐµÐ³Ð¾Ð´Ð½Ñı": 1807,
      "Ð³Ð°": 1808,
      "ĠÑĦÑĢÐ°Ð½ÑĨÑĥÐ·": 1809,
      "ĠÑģÐ¼Ðµ": 1810,
      "ĠÐ·Ð°Ð¼ÐµÑĩ": 1811,
      "ĠÑĥÑģÐ¼": 1812,
      "ĠÐ²Ð¾Ð·Ð¼": 1813,
      "Ð¾ÑĢÐ¼": 1814,
      "Ð½Ð¾ÑģÑĤÑĮÑİ": 1815,
      "ĠÐłÐ°Ñģ": 1816,
      "ĠÐ´Ð°Ð»ÑĮ": 1817,
      "Ð°ÐºÐ°": 1818,
      "ĠÐ¼ÑĭÑģÐ»Ð¸": 1819,
      "Ð»Ð°Ð³": 1820,
      "ĠÐ¿ÑĢÐ¾Ð¼": 1821,
      "ĠÐĶÐ°Ð²ÑĭÐ´": 1822,
      "Ð¿Ð¾Ð»": 1823,
      "Ð¾Ð¼Ð¸Ð½Ð°": 1824,
      "ĠÐļÐ¾Ð½": 1825,
      "ÑģÑĤÐ²Ð¸Ðµ": 1826,
      "ĠÑĤÑĭÑģÑıÑĩ": 1827,
      "ĠÑģÐºÐ¾ÑĢÐ¾": 1828,
      "ĠÑĤÐ¾Ð²Ð°ÑĢÐ¸Ñī": 1829,
      "ĠÐ±Ð»ÐµÐ´": 1830,
      "ÑĨÐµÐ¼": 1831,
      "ĠÐ±Ð°ÑĤ": 1832,
      "ÑīÐµÐµ": 1833,
      "ÐµÑħÐ°Ð»": 1834,
      "âĢ¦\"": 1835,
      "ĠÐºÐ°Ð±": 1836,
      "ĠÐ¼Ð¾Ð³Ð»Ð°": 1837,
      "ÑĭÐ²Ð°ÑĤÑĮ": 1838,
      "ĠÐ²ÑģÑĤÑĢÐµÑĩ": 1839,
      "ĠÐºÐ¾ÑĤÐ¾ÑĢÑĭÑħ": 1840,
      "ĠÐ²Ð¾ÑĢÐ¾ÑĤ": 1841,
      "ĠÐ¡Ð»": 1842,
      "ĠÑģÐµÐº": 1843,
      "ĠÐºÐ¾Ð¼Ð½Ð°ÑĤÑĥ": 1844,
      "Ð¸Ð²Ð°Ð»Ð¸": 1845,
      "ÑıÑĤÐ½Ð¾": 1846,
      "Ð¾Ð¶Ð¸Ð´": 1847,
      "Ð»Ñĥ": 1848,
      "ĠÐ¿Ð»Ð°ÑĤ": 1849,
      "Ð¼Ð°ÑĤÑĢ": 1850,
      "ĠÐ¿ÐµÑĢÐ²ÑĭÐ¹": 1851,
      "ĠÐ·Ð°Ð¼ÐµÑĤÐ¸Ð»": 1852,
      "ĠÐ²ÑĤÐ¾ÑĢ": 1853,
      "Ð¾ÑĤÐ°Ð»": 1854,
      "ĠÐļÐ½Ñı": 1855,
      "ĠÐ³Ð¾Ð²Ð¾ÑĢÑİ": 1856,
      "ĠÐ²Ð°Ð¼Ð¸": 1857,
      "ÑĪÐ¸Ñħ": 1858,
      "ĠÐ¼Ð¾Ð»ÑĩÐ°": 1859,
      "ĠÑĢÑĥÐºÐ¾Ð¹": 1860,
      "ĠÐ²Ñĩ": 1861,
      "ÑģÐºÑĥÑİ": 1862,
      "ĠÐ¿Ð¾Ð¶Ð°Ð»ÑĥÐ¹": 1863,
      "Ð¾Ð´Ð°ÑĢ": 1864,
      "ĠÑģÑĤÐ¾ÑĢÐ¾Ð½Ñĭ": 1865,
      "Ð¾Ð¼Ðµ": 1866,
      "ÑĢÐ¸ÑĩÐ°Ð»": 1867,
      "ĠÐ²Ð·ÑıÐ»": 1868,
      "ĠÐ¢Ð¾Ð»ÑĮÐºÐ¾": 1869,
      "ĠÐ½Ð¾ÑĩÑĮ": 1870,
      "ĠÐļÑĤÐ¾": 1871,
      "ĠÐĿÐµÑħÐ»ÑİÐ´": 1872,
      "ĠÐ²Ð¸Ð´ÐµÑĤÑĮ": 1873,
      "ÑģÐºÐ¸": 1874,
      "ĠÐ²ÑĢÐµÐ¼ÐµÐ½Ð¸": 1875,
      "ĠÐ¿Ð°Ð¿": 1876,
      "ĠÐ´Ð¾Ð³": 1877,
      "Ð¸Ð¶Ñĥ": 1878,
      "ĠÑĥÑĪ": 1879,
      "Ð°Ð»ÑĮÐ½Ð¾": 1880,
      "ĠÐ·ÑĥÐ±": 1881,
      "ĠÐ¾ÑģÐ²": 1882,
      "ĠÐ¿ÑıÑĤÑĮ": 1883,
      "ĠÐ¾Ð±Ð»": 1884,
      "ÑĢÑıÐ´": 1885,
      "ĠÐĽÑİ": 1886,
      "ĠÐŁÐµÑĤÑĢ": 1887,
      "ĠÑĪÑĥÐ¼": 1888,
      "ĠÑĩÑĥÐ²ÑģÑĤÐ²Ð¾Ð²Ð°Ð»": 1889,
      "ĠÑģÑĤÐ¾ÑĢÐ¾Ð½Ñĥ": 1890,
      "ĠÐ²ÑĭÐ·": 1891,
      "ÐºÑĥÑİ": 1892,
      "ĠÐ²ÑģÑĤÑĢÐµÑĤ": 1893,
      "ĠÑĢÐ°Ð·Ð¼": 1894,
      "ĠÐ·Ð°ÑģÑĤÐ°Ð²": 1895,
      "ĠÐ¼ÑĥÑĩ": 1896,
      "ĠÐ¼ÐµÑģÑĤÐ¾": 1897,
      "ĠÑĢÐ°ÑģÐº": 1898,
      "ĠÐ¡ÑĤÐ°ÑĢ": 1899,
      "ĠÑģÐ°Ð¼Ð¾Ð¼": 1900,
      "ĠÑģÐµÐ»": 1901,
      "ĠÐ¼ÐµÐ»": 1902,
      "ĠÐ²ÑĢ": 1903,
      "ĠÐ¢ÐµÐ¿ÐµÑĢÑĮ": 1904,
      "ÑĤÑı": 1905,
      "ĠÐ»Ð¸ÑĨÐµ": 1906,
      "ĠÑģÐ¼ÐµÑĪ": 1907,
      "ĠÐ¿ÐµÑĢÐµÐ±": 1908,
      "ĠÑħÐ¾Ð·ÑıÐ¹": 1909,
      "Ð°Ñī": 1910,
      "Ð°Ð´Ð¸": 1911,
      "ĠÐ¼Ð½Ð¾Ð¹": 1912,
      "Â»": 1913,
      "ÑĥÑĪÐºÐ¸": 1914,
      "ĠÐ³Ð¾ÑģÑĥÐ´": 1915,
      "ĠÐ¿ÐµÑĢÐµÑģÑĤ": 1916,
      "Ð¸ÑĤÐ¾": 1917,
      "ĠÐºÐ¾Ñģ": 1918,
      "ĠÐ¼Ð¾ÐµÐ³Ð¾": 1919,
      "ĠÐ½ÑĢÐ°Ð²": 1920,
      "Ð°ÑİÑĤÑģÑı": 1921,
      "Â«": 1922,
      "ĠÐŁÐ°Ð²Ð»Ð¾Ð²": 1923,
      "ĠÐ½Ð°Ð¿ÑĢÐ°Ð²": 1924,
      "ĠÑĤÐ¾Ð±": 1925,
      "ĠÐ¼Ð°Ð»Ð¾": 1926,
      "ĠÐ²Ð¾ÑģÐºÐ»Ð¸Ðº": 1927,
      "ĠÐ¿ÑĢÐ¸Ð»": 1928,
      "ÑģÐºÐ¸Ð¼": 1929,
      "ĠÐ¾ÑģÑĤÑĢ": 1930,
      "Ð±Ñĭ": 1931,
      "Ð¾Ð²Ñĥ": 1932,
      "ĠÐ¿Ð¾Ð´Ð½Ñı": 1933,
      "ĠÑģÐ²Ð¾ÐµÐ¼": 1934,
      "ĠÐ¼Ð³": 1935,
      "ĠÐ´Ð¾Ð±": 1936,
      "ĠÐ»Ð¸ÑĪÑĮ": 1937,
      "Ð°Ð³Ð¾ÑĢ": 1938,
      "ĠÑģÐ°Ð¼Ð¸": 1939,
      "ĠÐ·Ð°Ð´ÑĥÐ¼": 1940,
      "ĠÐ½ÐµÐ½": 1941,
      "ĠÐºÐ²Ð°ÑĢ": 1942,
      "ĠÐ¶ÐµÑģÑĤ": 1943,
      "ĠÐ´ÐµÐ»Ðµ": 1944,
      "ĠÐ¡Ð¼": 1945,
      "ĠÐ¾Ð´Ð½Ð°ÐºÐ¾": 1946,
      "ĠÐ§ÐµÑĢ": 1947,
      "ĠÐ²Ð¾Ð·Ð´ÑĥÑħ": 1948,
      "Ð°Ð·Ð´": 1949,
      "Ð¾ÑĪÐ»Ð°": 1950,
      "ĠÐ´Ð¾Ð²Ð¾Ð»ÑĮÐ½Ð¾": 1951,
      "ĠÑħÑĥ": 1952,
      "ÐµÑĩÐ°ÑĤ": 1953,
      "ĠÐ²Ð°Ð¶": 1954,
      "Ð¾ÑĤÐ¸Ð²": 1955,
      "ĠÑģÑĥÑīÐµ": 1956,
      "ĠÑĢÐ°ÑģÑĤ": 1957,
      "Ð½Ð¸ÑĨÐ°": 1958,
      "ĠÐ·Ð°ÑĩÐµÐ¼": 1959,
      "ĠÂ«": 1960,
      "ĠÐ½Ð°Ð»": 1961,
      "ĠÐºÑĢÐ¸ÐºÐ½ÑĥÐ»": 1962,
      "ÐµÐ¼ÐµÐ½": 1963,
      "ĠÐ´Ð¾Ð»Ð¶Ð½Ð¾": 1964,
      "ĠÐ¿ÑĥÑĤ": 1965,
      "ÑıÐ»Ð°ÑģÑĮ": 1966,
      "ÑĪÐ°Ñı": 1967,
      "ĠÐ´Ð¾Ð²": 1968,
      "ĠÑĩÑĥÐ¶": 1969,
      "Ð½ÑĥÐ²ÑĪÐ¸ÑģÑĮ": 1970,
      "Ð¾Ð¼Ð¸Ð½": 1971,
      "ĠÑĥÐ»ÑĭÐ±Ð°ÑıÑģÑĮ": 1972,
      "ĠÐ¿ÑĢÐ¾Ð³Ð¾Ð²Ð¾ÑĢÐ¸Ð»": 1973,
      "ĠÑĤÐ²ÐµÑĢÐ´": 1974,
      "ĠÑģÑĤÐµÐ½": 1975,
      "ĠÑģÑĤÑĢÐ°Ñħ": 1976,
      "ĠÐ½Ð¸ÐºÑĤÐ¾": 1977,
      "ĠÐ¼ÐµÑĪ": 1978,
      "ÑĮÐ¸": 1979,
      "ÐºÐ¾Ð½": 1980,
      "ĠÑĩÐ°ÑģÑĤÐ¾": 1981,
      "ĠÐ¾ÐºÐ¾Ð»Ð¾": 1982,
      "ĠÑĤÐ¾ÑĢÐ¾Ð¿": 1983,
      "ĠÐ¼ÑĭÑģÐ»ÑĮ": 1984,
      "ĠÐ³Ð¾Ð²Ð¾ÑĢÐ¸Ð»Ð¸": 1985,
      "ĠÐ¢ÑĥÑĤ": 1986,
      "Ð²Ð¸": 1987,
      "ĠÐ¿ÐµÑĢÐµÐ²": 1988,
      "ĠÐ¿Ð¾ÑħÐ¾Ð¶": 1989,
      "ÑĥÑĢÐ³": 1990,
      "ĠÐĿÐ¸ÐºÐ¾Ð»Ð°Ð¹": 1991,
      "Ġ[": 1992,
      "ĠÐ·Ð´Ð¾ÑĢÐ¾Ð²": 1993,
      "Ð¾ÑĤÑĭ": 1994,
      "ĠÑĤÐ¾Ð¹": 1995,
      "Ð¸Ð²Ð°ÐµÑĤ": 1996,
      "Ð¾ÐºÐ°": 1997,
      "Ð»ÐµÐ½Ð°": 1998,
      "ĠÑģÐ´ÐµÐ»Ð°ÑĤÑĮ": 1999,
      "Ð¸ÑĤÐµÑģÑĮ": 2000,
      "ĠÑģÑĤÐ°Ð»Ð°": 2001,
      "ĠÐĶÐ¾Ð»": 2002,
      "ĠÐ»Ð¸ÑĨÐ¾Ð¼": 2003,
      "ĠÑĤÐµÐ¿": 2004,
      "ĠÐºÐ°ÐºÐ¾Ðµ": 2005,
      "ĠÐ´ÐµÐ½ÑĮÐ³Ð¸": 2006,
      "ĠÑĤÐ°ÐºÐ¸Ðµ": 2007,
      "Ð±Ð°": 2008,
      "Ð°ÑĤÑĭÐ¹": 2009,
      "ĠÐĳÑĭ": 2010,
      "ÑĪÐµÐµ": 2011,
      "ĠÐ³Ð¾Ð»ÑĥÐ±": 2012,
      "ĠÐ¿Ð¾ÑĩÑĥÐ²ÑģÑĤÐ²": 2013,
      "ĠÑģÐ¾Ð±Ð¾Ñİ": 2014,
      "ĠÐ¿Ð»Ð°": 2015,
      "ĠÐķÐ²": 2016,
      "ĠÐºÑĢÐ°Ð¹": 2017,
      "Ð¾Ð½Ñı": 2018,
      "ĠÐļÐ°ÑĤ": 2019,
      "ĠÐ¾ÐºÐ½Ð°": 2020,
      "ĠÑģÑİÐ´Ð°": 2021,
      "ĠÑģÑĤÐ°ÑĢÐ¸Ðº": 2022,
      ").": 2023,
      "ĠÐ´Ð¾Ð¼Ð¾Ð¹": 2024,
      "ĠÑĢÑıÐ´Ð¾Ð¼": 2025,
      "ÑĥÑģÑĤÑĮ": 2026,
      "ĠÐļÑĢ": 2027,
      "ĠÐ¦": 2028,
      "ĠÐ¡Ð°Ð¼Ð³": 2029,
      "ĠÑģÑĤÐ°Ð½Ð¾Ð²": 2030,
      "ĠÑģÐ°Ð¼Ð¾Ð³Ð¾": 2031,
      "ĠÐ¿ÐµÑĢÐµ": 2032,
      "ĠÐ¶ÐµÐ½ÑīÐ¸Ð½Ð°": 2033,
      "ĠÑĤÑıÐ¶ÐµÐ»": 2034,
      "ĠÑıÐ·": 2035,
      "ĠÐ¸Ð½Ð¾Ð³Ð´Ð°": 2036,
      "ĠÐ¿Ð»Ð°ÑĤÑĮ": 2037,
      "ĠÐ·Ð¾Ð»": 2038,
      "Ð±Ñĥ": 2039,
      "ÑĢÐ°Ð·Ñĥ": 2040,
      "ĠÐĲÐ»ÐµÑĪ": 2041,
      "ĠÐ³ÐµÐ½ÐµÑĢÐ°Ð»": 2042,
      ",-": 2043,
      "Ðĺ": 2044,
      "Ð¸Ð²Ð¾": 2045,
      "ĠÐ²Ð¾Ð²": 2046,
      "ĠÐ¿ÑĢÐ¸ÑĤ": 2047,
      "ĠÐ¡ÐµÑĢÐ³": 2048,
      "ĠÐĽÑİÐ±": 2049,
      "ÑĢÑĭÑĤ": 2050,
      "ĠÐ¼ÐµÑģÑı": 2051,
      "ĠÑĩÑĥÐ´": 2052,
      "ĠÐ·Ð½Ð°Ñĩ": 2053,
      "ÑģÐ°": 2054,
      "Ð¼ÑĥÑī": 2055,
      "ĠâĢĶ": 2056,
      "ĠÐ²Ð¸Ð´Ð½Ð¾": 2057,
      "ĠÑĥÑħ": 2058,
      "ĠÐ·Ð½Ð°ÑĤÑĮ": 2059,
      "ĠÐ½Ð°Ð¿ÑĢ": 2060,
      "ĠÑĤÐ°ÐºÐ¸Ð¼": 2061,
      "ĠÐĳÐ¾Ð³": 2062,
      "Ð½Ð¸ÑĨÑĭ": 2063,
      "ĠÑĩÐµÑĤÑĭÑĢ": 2064,
      "ĠÐ±ÐµÐ³": 2065,
      "ĠÐ¼Ð½Ð¾Ð³": 2066,
      "ÑģÑĤÐ²Ñĥ": 2067,
      "ĠÐºÑĢÐ¾Ð¼Ðµ": 2068,
      "ĠÐĿÐ°Ð¿": 2069,
      "ĠÑģÐºÐ¾Ð»ÑĮÐºÐ¾": 2070,
      "Ð»ÑıÑĤÑĮ": 2071,
      "ĠÑģÐ»Ð°Ð±": 2072,
      "ĠÑĪÑĤ": 2073,
      "ĠÐ¾Ð±ÑīÐµ": 2074,
      "Ðľ": 2075,
      "ĠÐ¿ÑĢÐ¸ÑģÑĤ": 2076,
      "ĠÐ¼Ð°Ð»ÑĮÑĩÐ¸Ðº": 2077,
      "ÑĢÑĥ": 2078,
      "ĠÑĤÐµÑĢ": 2079,
      "ĠÑĩÑĥÐ²ÑģÑĤÐ²Ð¾": 2080,
      "ĠÐµÐ¶": 2081,
      "Ð¾Ð»Ð¾Ñģ": 2082,
      "ĠÐļÐ¾ÑĢ": 2083,
      "ĠÑĢÐ°Ð²": 2084,
      "ÐµÐµÑĤ": 2085,
      "Ð°Ð´ÑĮ": 2086,
      "ĠÐ¼Ð³Ð½Ð¾Ð²": 2087,
      "ĠÐ²Ð»Ð°": 2088,
      "ĠÑĨÐµÑĢ": 2089,
      "ĠÑĥÑģÑĤ": 2090,
      "Ð¾Ð¶Ð°Ð»": 2091,
      "ĠÐ¿Ð¸ÑģÑĮÐ¼Ð¾": 2092,
      "ĠÐ°Ð²": 2093,
      "ĠÐ½ÐµÐ¸Ð·": 2094,
      "ĠÐ³Ð¾ÑĢÑıÑĩ": 2095,
      "ĠÐ·Ð°Ð²ÑĤÑĢÐ°": 2096,
      "ĠÐ½ÐµÐº": 2097,
      "Ð°Ð½Ðµ": 2098,
      "ĠÐ´ÐµÐ¹ÑģÑĤÐ²Ð¸ÑĤÐµÐ»ÑĮÐ½Ð¾": 2099,
      "ĠÐ´ÑĭÐ¼": 2100,
      "ĠÐºÐ¾ÑĤÐ¾ÑĢÐ¾Ð¼": 2101,
      "ÑĢÐµÑĤ": 2102,
      "Ð²Ðµ": 2103,
      "Ð²Ð¸Ð¶": 2104,
      "ĠÑĤÑĢÐµÐ²": 2105,
      "ÑıÑĤÑĮÑģÑı": 2106,
      "ĠÐ²ÐµÑī": 2107,
      "ĠÐ¼Ð¸Ð¼Ð¾": 2108,
      "ĠÐļÐ°ÑĢ": 2109,
      "ĠÐĺÐ½": 2110,
      "ĠÑĪÑĥÑĤ": 2111,
      "ÐµÑĢÑĮÐµÐ·": 2112,
      "ĠÐ¾Ð¿Ð°Ñģ": 2113,
      "ĠÑĤÐ¾Ð»ÑģÑĤ": 2114,
      "ÐµÐ½Ð½ÑĥÑİ": 2115,
      "Ð½ÑĥÐ»Ð¸": 2116,
      "ĠÐ¿Ð¾Ð´Ð¾ÑĪÐµÐ»": 2117,
      "ĠÐĽÐ¸Ð·": 2118,
      "Ð½Ð¸Ð¸": 2119,
      "ĠÐºÐ°ÐºÐ¸Ð¼": 2120,
      "Ð¾Ð²Ð°Ð»Ð¸": 2121,
      "Ð¾Ð±ÑīÐµ": 2122,
      "ĠÑģÑĩÐ°ÑģÑĤÐ»Ð¸Ð²": 2123,
      "ĠÐ¿Ð¾ÑģÐ¿": 2124,
      "ĠÑĤÑĢÐµÐ±": 2125,
      "ĠÑģÐ¸Ð½": 2126,
      "Ð²Ð¸Ð½": 2127,
      "ĠÐ´ÐµÐ»Ð°": 2128,
      "ÑĩÐ¸Ð²Ð¾": 2129,
      "Ð°Ð½Ð¸Ð¸": 2130,
      "Ð¸Ð¼ÑģÑı": 2131,
      "Ð³Ð°ÑĢ": 2132,
      "ĠÐĽÐ¸ÑĤ": 2133,
      "ÐµÐ»Ñİ": 2134,
      "Ð¾ÑģÑĤÐ°Ð²": 2135,
      "ĠÐ¸ÑģÐ¿ÑĭÑĤ": 2136,
      "ĠÐ®": 2137,
      "ĠÐŁÐ¾ÑĤÐ¾Ð¼": 2138,
      "ÑıÑĤÐµÐ»ÑĮ": 2139,
      "ĠÐŁÐµÑĤÑĢÐ¾Ð²Ð¸Ñĩ": 2140,
      "ĠÐ²Ð°ÑĪÐµ": 2141,
      "ĠÐºÐ¾Ð¼Ð½Ð°ÑĤÑĭ": 2142,
      "ĠÑĩÑĢÐµÐ·": 2143,
      "Ð¾ÑģÑģ": 2144,
      "ĠÐ¾ÑĤÐ¿ÑĢÐ°Ð²": 2145,
      "ĠÑģÐºÐ²": 2146,
      "ÑĭÑģ": 2147,
      "Ð»ÑıÐ´ÑĭÐ²": 2148,
      "Ð¼Ð¾ÑĤÑĢÑı": 2149,
      "ĠÐ¼Ð¾Ð¸": 2150,
      "ĠÐ²ÑģÑĤÐ°Ð»": 2151,
      "ĠÐ»ÐµÐ²": 2152,
      "Ð¾Ð±Ñī": 2153,
      "ÑģÐºÐ¾ÑĢ": 2154,
      "Ð»ÐµÐ¹": 2155,
      "ĠÑģÑĤÐ°Ð»Ð¸": 2156,
      "Ð¾ÑĩÐºÐ°": 2157,
      "ÑĤÐ°Ð¼": 2158,
      "ĠÐĴÐ¾": 2159,
      "ĠÐĶÐ¼": 2160,
      "ĠÑģÐ²Ð¾Ð±Ð¾Ð´": 2161,
      "ĠÐ¾Ð´Ð½Ñĥ": 2162,
      "ĠÐ²Ð¾Ðº": 2163,
      "ĠÐ¼ÑıÐ³": 2164,
      "ĠÑģÐ»Ð¾Ð²Ð½Ð¾": 2165,
      "ĠÑĢÐ°Ð´Ð¾ÑģÑĤ": 2166,
      "Ð°Ð½Ð½ÑĭÐµ": 2167,
      "ĠÐ³Ð¾Ð´Ð°": 2168,
      "ĠÐ±Ð»ÐµÑģÑĤ": 2169,
      "ÐºÐ¸Ð¼Ð¸": 2170,
      "ÑģÑĤÐ¾": 2171,
      "Ð°Ð½Ð¸ÐµÐ¼": 2172,
      "ĠÑģÑĥÑħ": 2173,
      "ĠÐ¿ÑĮÑı": 2174,
      "ĠÐ¾ÑĤÐ½Ð¾ÑĪ": 2175,
      "ĠÐľÐ°ÑĢÑĮÑı": 2176,
      "Ð³Ð¾ÑĢ": 2177,
      "ĠÑģÐ²Ð¸Ð´": 2178,
      "Ð¸ÑĨÑĥ": 2179,
      "ÑĩÐ°ÑģÑĤÑĮ": 2180,
      "ĠÐ»Ð¸ÑĪ": 2181,
      "ĠÐ´ÑĢÑĥÐ¶": 2182,
      "ĠÐºÐ¾ÑĢÐ¾ÑĤ": 2183,
      "ĠÐ·Ð°Ð½Ð¸Ð¼": 2184,
      "ĠÐ¼ÐµÐ´Ð»ÐµÐ½Ð½Ð¾": 2185,
      "ĠÐ¼Ð¾Ð»Ð¾Ð´Ð¾Ð¹": 2186,
      "ĠÐ±Ð¾ÑĢÐ¾Ð´": 2187,
      "ĠÑģÐ¾ÑĢ": 2188,
      "ĠÐ±ÐµÑģÑģ": 2189,
      "ĠÐ¡ÑĤÐµÐ¿Ð°Ð½": 2190,
      "ÑĨÐ°Ð¼Ð¸": 2191,
      "ĠÐ·Ð½Ð°ÐµÑĪÑĮ": 2192,
      "ĠÐ¸ÑģÑĤ": 2193,
      "ĠÐĵÐ¾ÑĢ": 2194,
      "ĠÐĴÑģ": 2195,
      "ĠÐ³Ð»Ð°Ð·Ð°Ñħ": 2196,
      "ĠÐ¿ÑĢÐ¸Ð½Ð¸Ð¼": 2197,
      "ĠÑħÐ¾ÑĤÐµÐ»Ð¾ÑģÑĮ": 2198,
      "ĠÐ½Ð°Ð¹": 2199,
      "ĠÐ½ÐµÐ¼Ð½Ð¾Ð³Ð¾": 2200,
      "ĠÑĪÐ»Ñı": 2201,
      "ĠÐ¿ÑĢÐµÐ´Ð»Ð¾Ð¶": 2202,
      "ÑĥÑĢÐ°": 2203,
      "ĠÑĪÐ¸ÑĢÐ¾Ðº": 2204,
      "Ð¾Ð·Ð¼": 2205,
      "ĠÐ¿ÑĢÐ°Ð²Ð´Ð°": 2206,
      "ĠÐ¾Ð±ÑĬÑıÑģÐ½": 2207,
      "Ð¾Ð¼Ð°": 2208,
      "ĠÐ²ÐµÑĢÑħ": 2209,
      "Ð½Ð¸Ñı": 2210,
      "ĠÐĵÐ¾Ñģ": 2211,
      "ĠÐ»Ð°ÑģÐºÐ¾Ð²": 2212,
      "ÑĥÑĤÑĥÐ·": 2213,
      "ĠÐ°Ðº": 2214,
      "ĠÐľÐ¸ÑĤ": 2215,
      "ĠÑĢÐ°Ð·ÑĥÐ¼": 2216,
      "Ð§": 2217,
      "Ð¾Ð¶ÐµÑĤ": 2218,
      "ÑĤÐ¾Ð¼": 2219,
      "ÐµÐ´Ð¸Ð½": 2220,
      "ĠÑĢÐ°Ð·Ð´ÑĢ": 2221,
      "ÐºÐ½ÑĥÐ»": 2222,
      "Ð°ÑĢÐ°": 2223,
      "Ð½Ð°ÐºÐ¾Ð¼": 2224,
      "ĠÐĽÐµÐ²Ð¸Ð½": 2225,
      "ÐµÑĤÑĭ": 2226,
      "ĠÐ½Ð°Ð·ÑĭÐ²": 2227,
      "ÑĢÐµÐ¼ÐµÐ½Ð½Ð¾": 2228,
      "ĠÐ¯ÐºÐ¾Ð²": 2229,
      "ÑİÑĢ": 2230,
      "ĠÐ´ÑĥÐ¼Ð°Ñİ": 2231,
      "ĠÐĳÐ¾ÑĢ": 2232,
      "ĠÑĦÐ¸Ð³": 2233,
      "ÑĭÑĩÐ°Ð¹": 2234,
      "ĠÐ¾ÐºÐ°Ð·": 2235,
      "ĠÑģÐ¾ÑĤ": 2236,
      "ĠÐ±Ð»Ð°Ð³Ð¾": 2237,
      "ĠÐ½Ð¸Ð·": 2238,
      "ĠÑģÐµÑĢÑĮÐµÐ·": 2239,
      "ÑĨÐ¾Ð²": 2240,
      "Ð°Ð¼Ð¿": 2241,
      "ĠÑģÑĤÐµÐ¿": 2242,
      "ĠÑģÐ¼ÐµÑħ": 2243,
      "ĠÐ¿Ð¾Ð´Ð½Ð¸Ð¼": 2244,
      "ĠÐ¿Ð¾Ð½Ð¸Ð¼Ð°Ñİ": 2245,
      "ĠÐ±ÑĥÐ¼Ð°Ð³": 2246,
      "ĠÐ¿ÐµÑģ": 2247,
      "ĠÐ¾Ñī": 2248,
      "ĠÐ¸ÑģÑĤÐ¾ÑĢ": 2249,
      "Ð¾Ð²Ð½Ð°": 2250,
      "ÐµÑģÑĤÐ½Ð¾": 2251,
      "ĠÐ³Ð¾Ð²Ð¾ÑĢÑıÑĤ": 2252,
      "ĠÐºÐ¾Ð¼Ð°Ð½Ð´": 2253,
      "Ð¾Ð»Ðµ": 2254,
      "ĠÐ´ÑĢÑĥÐ³Ð¸Ñħ": 2255,
      "ĠÑĥÑħÐ¾Ð´": 2256,
      "ĠÐļÑĥÑĤÑĥÐ·": 2257,
      "ĠÐºÑĢÐµÑģ": 2258,
      "Ð¸Ð¶Ðµ": 2259,
      "Ð¸ÑĦ": 2260,
      "ĠÐºÐ²Ð°ÑĢÑĤÐ¸ÑĢ": 2261,
      "ĠÑģÐ¾Ð±ÑĢ": 2262,
      "ĠÐ¿Ð¾ÑĨ": 2263,
      "ĠÑĢÑĥÐºÐ°Ñħ": 2264,
      "ĠÐ²Ð¿Ð¾Ð»": 2265,
      "Ð¸Ð±Ð¾": 2266,
      "ĠÐ¾ÑģÑĤÐ°Ð½Ð¾Ð²Ð¸Ð»ÑģÑı": 2267,
      "ĠÑĢÐ¾Ð·": 2268,
      "ĠÑħÑĥÐ´": 2269,
      "ĠÐĶÐ°Ð²ÑĭÐ´Ð¾Ð²": 2270,
      "ĠÑģÐµÐ´": 2271,
      "ĠÐ²Ð¾ÑĪÐµÐ»": 2272,
      "ĠÐ¿ÑĢÐ¾Ñī": 2273,
      "ĠÐ¸ÑģÑĩ": 2274,
      "ĠÑĢÐµÐ´": 2275,
      "ÐºÑģ": 2276,
      "ĠÐ¼Ð°Ñģ": 2277,
      "ĠÑģÑħÐ²Ð°ÑĤ": 2278,
      "ĠÐ±Ð°Ð»": 2279,
      "ĠÐ¾Ð¿ÑĥÑģÑĤ": 2280,
      "ĠÐ¾Ð±ÑĭÐºÐ½Ð¾Ð²": 2281,
      "Ð°Ð²ÑĢ": 2282,
      "ĠÑħÐ»ÐµÐ±": 2283,
      "ĠÐ¼Ð°Ð¼": 2284,
      "ĠÐ¿Ð¾Ð·Ð´": 2285,
      "ĠÐ³ÑĥÐ±Ñĭ": 2286,
      "Ð»ÑİÐ±": 2287,
      "Ð°Ð²Ð°Ð»": 2288,
      "ĠÑģÐ¾Ñĩ": 2289,
      "ĠÐµÐ´Ð¸Ð½": 2290,
      "ĠÐłÐ¾ÑģÑĤÐ¾Ð²": 2291,
      "Ð²Ð¸Ð³": 2292,
      "ĠÐ½ÐµÐ¾Ð¶Ð¸Ð´": 2293,
      "ĠÑģÐ²ÑıÐ·": 2294,
      "Ð¾ÑħÐ¾ÑĤ": 2295,
      "ĠÑĤÐµÑĤ": 2296,
      "ĠÐ¼Ð¾Ð½": 2297,
      "ĠÐĽÐ¸Ð´": 2298,
      "ĠÐľÐ¸ÑħÐ°Ð¹": 2299,
      "ÑĥÐºÐ¸": 2300,
      "ĠÐ½Ð°ÑģÑĤÐ¾": 2301,
      "ÑĢÐ°Ð¼": 2302,
      "ÐµÑĢÑģ": 2303,
      "ĠÐ´ÑĢÑĥÐ³Ð°": 2304,
      "ĠÐ²ÑģÑĤ": 2305,
      "ÑģÐºÐ¾Ðµ": 2306,
      "Ð¾Ð»Ð²": 2307,
      "Ð¾Ð»ÑĮÑĤÐµ": 2308,
      "ĠÑģÐ²ÐµÑĢ": 2309,
      "ĠÐ¿ÑĢÐµÐ·": 2310,
      "ĠÐ´Ð¾Ð¼Ðµ": 2311,
      "ĠÐĿÐ°ÑĤÐ°ÑĪÐ°": 2312,
      "ĠÑģÑĤÐµÐº": 2313,
      "ĠÐĶÐ¼Ð¸ÑĤÑĢ": 2314,
      "ĠÑĥÑģÐ¼ÐµÑħ": 2315,
      "ĠÑĥÐ´Ð¾Ð²Ð¾Ð»ÑĮ": 2316,
      "Ð¸Ð²ÑĪÐ¸Ð¹": 2317,
      "ĠÑĢÐ°Ð·Ð´ÑĢÐ°Ð¶": 2318,
      "Ð¾ÑģÐ¾Ð±": 2319,
      "ÑĢÐ¾Ðº": 2320,
      "ĠÑĥÐ»ÑĭÐ±ÐºÐ¾Ð¹": 2321,
      "Ð¾Ð²Ð¾ÑĢÐ¸Ð»Ð°": 2322,
      "ĠÐ²Ð¸Ð½Ð¾Ð²": 2323,
      "ĠÐ·Ð°ÑģÑĤ": 2324,
      "ĠÐ¾Ð³ÑĢÐ¾Ð¼": 2325,
      "ĠÑģÑĢÐ°Ð·Ñĥ": 2326,
      "Ð½ÑİÑİ": 2327,
      "ĠÐŀÑĢÑĤÑĢ": 2328,
      "ĠÐ¼ÐµÑĩ": 2329,
      "ĠÑģÐ»ÑĭÑĪÐ°Ð»": 2330,
      "ĠÐ¿Ð¾Ð¹Ð´": 2331,
      "ĠÐ¼ÐµÑģÑĤÐµ": 2332,
      "ĠÑĢÐ°Ð²Ð½Ð¾": 2333,
      "ĠÐ·Ð½Ð°ÑĩÐ¸ÑĤ": 2334,
      "ĠÐ³ÑĢÑĥÐ´Ð¸": 2335,
      "ĠÐ¿ÑĢÐµÐ²": 2336,
      "ĠÐ²ÐµÑģÐµÐ»Ð¾": 2337,
      "ĠÐ¿Ð¾ÑģÑĤÐ°Ð²": 2338,
      "ĠÐ¿Ð¾ÑģÑĤÑĥÐ¿": 2339,
      "ĠÐ¤ÐµÐ´Ð¾ÑĢÐ¾Ð²": 2340,
      "ĠÐ»ÑİÐ±Ð¾Ð¿ÑĭÑĤ": 2341,
      "ÑĤÐ¾Ðµ": 2342,
      "ĠÐ½ÐµÐ¿Ð¾Ð´": 2343,
      "ĠÑģÐ»ÑĥÑĩÐ°": 2344,
      "ĠÐ¼ÐµÐ»ÑĮ": 2345,
      "ĠÑĤÐ²": 2346,
      "ĠÐŁÐ¾Ñĩ": 2347,
      "ĠÐŁÐµÑĢÐµÐ´Ð¾Ð½Ð¾Ð²": 2348,
      "ÐµÑĢÐ±ÑĥÑĢÐ³": 2349,
      "ÐºÐ¸Ð½": 2350,
      "ĠÐ¿ÑĢÐ¾Ð½": 2351,
      "ĠÑĥÐ³ÑĢ": 2352,
      "ĠÐ´Ð¾ÑģÐ°Ð´": 2353,
      "Ð¾ÑĢÑĤ": 2354,
      "Ð·ÑĮ": 2355,
      "ĠÑģÐºÑĥÑĩ": 2356,
      "Ð½ÑıÑı": 2357,
      "ĠÐ´Ð²ÐµÑĢ": 2358,
      "ĠÑģÑĭÐ½": 2359,
      "ĠÐĴÐ°ÑĢÐ²Ð°ÑĢÐ°": 2360,
      "ĠÐºÐ°ÑĢÑĤ": 2361,
      "ĠÐĵÐ»": 2362,
      "ĠÐºÑĢÑĭÐ»ÑĮ": 2363,
      "ĠÐºÐ°Ð¶Ð´ÑĭÐ¹": 2364,
      "Ð°ÑĤÐ°": 2365,
      "ĠÐ´ÐµÐ½": 2366,
      "ĠÐ¿Ð¾ÑĢÑıÐ´": 2367,
      "ĠÐ¾Ð±Ñī": 2368,
      "ĠÐµÐ´Ð²Ð°": 2369,
      "Ð°Ð½Ñĥ": 2370,
      "ÑĢÑĭÐ»": 2371,
      "ĠÑģÐºÐ²Ð¾Ð·ÑĮ": 2372,
      "ĠÑģÐ²Ð¾Ð¸Ð¼Ð¸": 2373,
      "ĠÐ³Ð¾ÑĢÐ´": 2374,
      "ÑĥÑħÐ°": 2375,
      "ĠÐ½ÐµÐ¾Ð±ÑħÐ¾Ð´": 2376,
      "ĠÐºÐ¾ÑĤÐ¾ÑĢÑĭÐ¼": 2377,
      "ÐĶÐ°": 2378,
      "ÑĭÐ³": 2379,
      "ÐºÐ¾Ð»ÑĮ": 2380,
      "ĠÐ»ÑİÐ±Ð²Ð¸": 2381,
      "ĠÐķÐ¼Ñĥ": 2382,
      "ĠÐ»ÑİÐ±Ð»Ñİ": 2383,
      "ĠÐĲÐ»ÐµÐºÑģÐµ": 2384,
      "ĠÐ¢Ð¾": 2385,
      "ĠÐĵÑĢÐ°ÑĦ": 2386,
      "ĠÐ·Ð°Ð³Ð¾Ð²Ð¾ÑĢÐ¸Ð»": 2387,
      "ĠÐ¿Ð¾ÑģÐ¿ÐµÑĪ": 2388,
      "ÐµÐ½Ð½ÑĭÐ¼Ð¸": 2389,
      "ĠÐ¿Ð¾ÑģÐ¼Ð¾ÑĤÑĢÐµÐ»": 2390,
      "ĠÑĤÐ°ÐºÐ°Ñı": 2391,
      "ĠÐ´ÑĥÐ¼Ð°ÑĤÑĮ": 2392,
      "Ð¸Ð²Ð°Ð»ÑģÑı": 2393,
      "ĠÐ¼Ð¾Ñİ": 2394,
      "ĠÐ²Ð¾Ð»Ð½": 2395,
      "ĠÑĢÐ°Ð·Ð²Ðµ": 2396,
      "ĠÐ¸Ð´ÑĤÐ¸": 2397,
      "ĠÑħÑĥÑĤÐ¾ÑĢ": 2398,
      "ĠÐ²Ð¾Ð²ÑģÐµ": 2399,
      "ĠÐ¸ÑģÑĩÐµÐ·": 2400,
      "ĠÐ¿Ð¾Ð·Ð²Ð¾Ð»": 2401,
      "ĠÐ´Ð¾Ð¶Ð´": 2402,
      "ĠÐ²ÑĭÑģÐº": 2403,
      "ĠÐ»Ð¾Ð¶": 2404,
      "Ð»ÐµÑĩ": 2405,
      "ĠÐ²ÑĭÐº": 2406,
      "ĠÑĢÐµÐ±ÐµÐ½": 2407,
      "ĠÐ²Ð¿ÑĢÐ¾Ñĩ": 2408,
      "ĠÐ²Ð¿ÑĢÐ¾ÑĩÐµÐ¼": 2409,
      "ĠÐ¿Ð°Ð»": 2410,
      "ĠÑģÐ°Ð¼Ð¾Ðµ": 2411,
      "ĠÐĹÐ½Ð°": 2412,
      "ĠÑģÐ¾Ð¾Ð±Ñī": 2413,
      "Ð¸ÑĩÐµÑģÐºÐ¸": 2414,
      "ĠÑĪÐ»ÑıÐ¿": 2415,
      "ĠÑģÑĤÑĢÐ°Ð´": 2416,
      "ĠÑħÐ»Ð¾Ð¿": 2417,
      "ĠÑĩÐ¸ÑģÑĤ": 2418,
      "ĠÑĢÐ¾ÑĤ": 2419,
      "ĠÐ¿Ð¾Ð»Ñĥ": 2420,
      "ĠÐ¸Ð·Ð¼ÐµÐ½": 2421,
      "ÑģÑĤÐ²Ð¸Ñı": 2422,
      "ĠÐ½Ð°Ð²ÐµÑĢ": 2423,
      "ĠÐ½ÐµÑĢ": 2424,
      "ĠÐ²Ð¾Ð·ÑĮ": 2425,
      "ĠÐ»ÐµÐ³ÐºÐ¾": 2426,
      "ĠÑĤÑĥÐ´Ð°": 2427,
      "ĠÐĲÑĢÐº": 2428,
      "ĠÐ¼ÐµÑģÑĤÐ°": 2429,
      "ĠÑģÐ´ÐµÐ»Ð°Ð»": 2430,
      "ĠÑĤÐ¾Ð±Ð¾Ð¹": 2431,
      "Ð°ÑİÑģÑĮ": 2432,
      "ĠÐ³Ð¾ÑģÑĥÐ´Ð°ÑĢ": 2433,
      "ĠÐ¿Ð¾Ð´Ð¾Ð±": 2434,
      "ĠÐ¾ÑĤÐ²Ð¾ÑĢ": 2435,
      "ĠÐ¾Ð±Ð¾": 2436,
      "ĠÑįÑĤÐ¾Ð¼Ñĥ": 2437,
      "Ð°Ð²ÑĪÐ¸Ðµ": 2438,
      "ĠÐ´ÑĢÑĥÐ³Ð¾": 2439,
      "ĠÐ¿Ð¾ÑıÐ²": 2440,
      "ĠÐ¾ÑĤÑĩÐ°Ñı": 2441,
      "Ð¼ÑĥÑĢ": 2442,
      "Ð¾ÑıÑĤÐ½Ð¾": 2443,
      "ĠÐ¶Ð¸Ð»": 2444,
      "ĠÐ¶Ð°ÑĢ": 2445,
      "ĠÑħÐ¾ÑĩÐµÑĤ": 2446,
      "ĠÐ²Ð½Ð¸Ð·": 2447,
      "ĠÑıÑģÐ½Ð¾": 2448,
      "ĠÐ»ÐµÑģÑĤ": 2449,
      "ĠÐºÐ°Ð±Ð¸Ð½": 2450,
      "Ð¸ÑĢÐ¾Ð´": 2451,
      "ĠÐ½Ð°Ð¿Ð¸Ñģ": 2452,
      "ĠÐĲÐ»ÐµÐºÑģÐµÐ¹": 2453,
      "ĠÐ¾ÑģÑĤÐ¾ÑĢ": 2454,
      "Ð¾Ð»Ñİ": 2455,
      "ĠÑģÐ»Ð°Ð²": 2456,
      "ĠÐ´ÑĢÑĥÐ³Ð¸Ðµ": 2457,
      "ĠÐ¿ÑĢÐ¸Ð¶": 2458,
      "ÑİÑĪÐºÐ°": 2459,
      "ÑıÑĤÑģÑı": 2460,
      "ĠÐ¿Ð¾ÑĤÐµÑĢ": 2461,
      "ĠÐĿÐµÑħÐ»ÑİÐ´Ð¾Ð²": 2462,
      "ÑĢÐµÐ±": 2463,
      "ĠÐ¿Ð°Ð¼": 2464,
      "ÑĭÑģÐ»": 2465,
      "ĠÑĤÐ¾Ð¿": 2466,
      "ĠÐ±Ð¾Ð»ÐµÐ·": 2467,
      "ĠÐ¿ÑĢÐ¸ÑĪÐµÐ»": 2468,
      "ÑĭÑģÐº": 2469,
      "ĠÐ²ÑĩÐµÑĢÐ°": 2470,
      "Ð³Ð»": 2471,
      "ĠÐ±Ð»Ð°Ð³Ð¾Ð´Ð°ÑĢ": 2472,
      "Ð°Ð½Ð½Ð¾Ð¹": 2473,
      "ĠÐ·Ð²Ð¾Ð½": 2474,
      "ĠÐ·ÐµÐ¼Ð»Ñİ": 2475,
      "ÑĪÐ¸Ð±": 2476,
      "Ð°Ð²ÑĪÐ¸Ñħ": 2477,
      "ÑĥÐ½Ð´": 2478,
      "ĠÐºÐ½ÑıÐ·Ñı": 2479,
      "Ġ.": 2480,
      "Ð²Ð¸Ð´": 2481,
      "ĠÐ²ÑħÐ¾Ð´": 2482,
      "ĠÐ±Ð¾Ðº": 2483,
      "ĠÑĤÐ°ÐºÐ¸Ñħ": 2484,
      "ĠÐ¿Ð¾Ð»Ð¾Ð²": 2485,
      "Ð°Ð¼ÐµÐ½": 2486,
      "ĠÐ±ÑĥÑĢ": 2487,
      "ĠÐ·ÐµÐ»ÐµÐ½": 2488,
      "ÑīÐ¸Ðº": 2489,
      "ĠÐ»Ð¾Ð²": 2490,
      "ĠÐ°Ð´": 2491,
      "ĠÑĩÐµÑĢÑĤ": 2492,
      "ĠÑģÐ¼ÐµÑĢÑĤÐ¸": 2493,
      "ĠÑģÐ¶": 2494,
      "ĠÐĿÐ°Ðº": 2495,
      "ĠÐ¾ÐºÑĢÑĥÐ¶": 2496,
      "ĠÑģÐ¾ÑģÐµÐ´": 2497,
      "Ð°ÐºÑĤ": 2498,
      "ĠÐ¥ÑĢ": 2499,
      "ĠÐ½ÐµÑģÑĩÐ°ÑģÑĤ": 2500,
      "ĠÑģÐ¿Ð¾ÐºÐ¾Ð¹Ð½Ð¾": 2501,
      "ĠÐ²Ð¾ÑģÑĤÐ¾ÑĢ": 2502,
      "ĠÐ±ÑĢÐ¾Ð²": 2503,
      "Ð¾Ð»Ñı": 2504,
      "ĠÐ¿Ð¾Ð´Ð¿": 2505,
      "ÑĢÐµÐ´ÐµÐ»": 2506,
      "ĠÐ´Ð¾ÐºÑĤÐ¾ÑĢ": 2507,
      "ĠÐ³ÑĢÐ¾Ð¼ÐºÐ¾": 2508,
      "ĠÑĤÐ¸ÑĪ": 2509,
      "ĠÐ¼Ð½Ð¾Ñİ": 2510,
      "ÑĢÑĥÑĪ": 2511,
      "Ð»ÐµÐ½Ð¸ÐµÐ¼": 2512,
      "Ð¾Ð·ÑĢ": 2513,
      "ĠÑĤÐ°ÐºÐ¾Ð³Ð¾": 2514,
      "ĠÑģÑĤÑĢÐ°Ð½Ð½Ð¾": 2515,
      "ĠÐĽÐ¾Ð³": 2516,
      "ĠÐ·Ð°ÑĤÐµÐ¼": 2517,
      "ĠÐļÐ½ÑıÐ·ÑĮ": 2518,
      "ĠÑĨÐ°ÑĢ": 2519,
      "ÐµÐ»ÑģÑı": 2520,
      "ĠÐ±Ð¾Ð³Ð°ÑĤ": 2521,
      "ĠÑģÐ¿Ð°Ñģ": 2522,
      "Ð°ÑĩÐµÐ¼": 2523,
      "Ð»Ð°ÑĤ": 2524,
      "ĠÐ¾Ð±Ð¸Ð´": 2525,
      "ĠÐ¿Ð¾Ð½ÑıÑĤÑĮ": 2526,
      "ĠÑģÐ²ÐµÑĤÐµ": 2527,
      "ĠÑĤÐµÐ¼Ð½Ð¾": 2528,
      "Ð½Ð¸ÐºÐ¾Ð¼": 2529,
      "ĠÑĩÐµÐ»Ð¾Ð²ÐµÑĩ": 2530,
      "ĠÑģÐ»ÑĥÑĩÐ°Ð¹": 2531,
      "ĠÐ³ÑĢÑıÐ·": 2532,
      "ĠÑģÑĤÑĭÐ´": 2533,
      "ĠÐ´Ð¾Ð½": 2534,
      "ĠÑĤÐ°Ð¹": 2535,
      "ĠÑģÐ°Ð¼Ð¾Ð¹": 2536,
      "ĠÐ²Ð¾ÐºÑĢÑĥÐ³": 2537,
      "ĠÐ¿Ð¾Ð¼Ð½": 2538,
      "ĠÐ´ÑĥÑĪÐµ": 2539,
      "ĠÐ²ÑģÐµÐ¹": 2540,
      "ĠÐ¿Ð¾Ð´Ð±": 2541,
      "ÑĨÐµÐ½": 2542,
      "ĠÐłÐ¾ÑģÑģ": 2543,
      "ĠÐ¿Ð¾Ð·Ð²": 2544,
      "ĠÐ²ÐµÐ´": 2545,
      "ĠÐ¾Ð²": 2546,
      "ĠÑģÑĤÐ¾Ð¸ÑĤ": 2547,
      "ĠÐĺÐ²Ð°Ð½Ð¾Ð²Ð½Ð°": 2548,
      "ĠÑģÑĢÐµÐ´Ð¸": 2549,
      "ÑĪÐ¸Ð¼": 2550,
      "Ð´Ð¸": 2551,
      "ĠÐºÑĢÐ°ÑģÐ¸Ð²": 2552,
      "ÑĪÐ°": 2553,
      "ÐµÐ½ÑĮÐµ": 2554,
      "ĠÑĥÐ²Ð¸Ð´ÐµÐ»": 2555,
      "ĠÐ³ÑĢÑĥÐ±": 2556,
      "ÑĢÐ¾Ð±": 2557,
      "ĠÐĴÐ°ÑģÐ¸Ð»ÑĮ": 2558,
      "ĠÐ¿Ð°Ð´": 2559,
      "Ð¾Ð²ÑĭÐ¼": 2560,
      "ĠÐŁÐ½": 2561,
      "ÑĨÐ¸": 2562,
      "ĠÑĥÐ¼ÐµÑĢ": 2563,
      "ĠÐ²Ð¸Ð¶Ñĥ": 2564,
      "ĠÐ±ÑĥÐ´ÑĥÑĤ": 2565,
      "ĠÑħÐ¾ÑĤÐµÐ»Ð°": 2566,
      "ĠÑģÐ½ÐµÐ³": 2567,
      "ĠÑĩÐ°ÑģÐ¾Ð²": 2568,
      "Ð¾ÑĤÑĥ": 2569,
      "ĠÐ½ÐµÑģÐ¼Ð¾ÑĤÑĢÑı": 2570,
      "ĠÐ½ÑĭÐ½": 2571,
      "ÑĥÑİÑĤ": 2572,
      "ĠÑģÐ»ÑĥÑĩÐ°Ðµ": 2573,
      "Ð¼ÐµÑĪ": 2574,
      "ĠÐºÐ¾ÑģÑĤ": 2575,
      "ĠÑģÑĤÑĥÐ¿": 2576,
      "ĠÑĩÐµÐ¼Ñĥ": 2577,
      "ĠÑĪÐ°ÑĢ": 2578,
      "ĠÐ¿ÑĢÐ¾Ð¸Ñģ": 2579,
      "ĠÐ³Ð¾ÑģÐ¿Ð¾Ð´Ð¸Ð½": 2580,
      "ÑģÐºÐ¾Ð¼Ñĥ": 2581,
      "ĠÑģÐ»ÐµÐ·Ñĭ": 2582,
      "ĠÐºÐ½ÑıÐ¶": 2583,
      "ĠÐ´Ð¾Ð¿": 2584,
      "ĠÐĿÐ°ÑģÑĤ": 2585,
      "ĠÐ¿Ð¾Ð»ÐºÐ¾Ð²": 2586,
      "ĠÐĿÐ¸ÐºÐ¾Ð»Ð°": 2587,
      "ĠÐ»ÑİÐ±Ð¾Ð²ÑĮ": 2588,
      "Ð¼ÐµÑĢ": 2589,
      "ĠÐ²ÑĭÐ¹": 2590,
      "ĠÐ¿Ð¾Ð½ÑıÐ»": 2591,
      "ĠÑģÑĭÐ½Ð°": 2592,
      "ĠÐ±Ð¾Ð»ÑĮÑĪÐ¾Ð¹": 2593,
      "ĠÐŁÐ¾ÑģÐ»Ðµ": 2594,
      "ĠÐ¶ÐµÐ½Ð°": 2595,
      "Ð°Ð³Ð¾ÑĢÐ¾Ð´": 2596,
      "Ð½Ð¸ÑĨÑĥ": 2597,
      "ĠÐ¿Ð»Ð°Ðº": 2598,
      "ĠÐĿÐ°ÑĤÐ°Ð»ÑĮ": 2599,
      "Ð¾Ð¼Ð°Ð½": 2600,
      "ÑĨÐ¸Ñı": 2601,
      "ĠÐ¾ÑĤÑģ": 2602,
      "ĠÐ¾Ð±Ðµ": 2603,
      "ĠÐĵÐ´Ðµ": 2604,
      "ĠÐ½Ð°ÑĩÐ°Ð»ÑĮ": 2605,
      "Ð¾ÑĢÐ¾ÑĪÐ¾": 2606,
      "ĠÐ»Ð¸Ñĩ": 2607,
      "ĠÐºÐ°Ñĩ": 2608,
      "ĠÐ¿Ð¾ÐºÐ»Ð¾Ð½": 2609,
      "ĠÐ²Ð¾Ð¾Ð±ÑīÐµ": 2610,
      "ĠÑĤÑıÐ¶ÐµÐ»Ð¾": 2611,
      "ĠÑĩÐµÑĤÐ²ÐµÑĢ": 2612,
      "ĠÐ·Ð¾Ð»Ð¾ÑĤ": 2613,
      "ĠÑģÐ¼ÑĥÑī": 2614,
      "ĠÑĢÐ°Ð±Ð¾Ñĩ": 2615,
      "ĠÐ±ÑĭÑģÑĤÑĢ": 2616,
      "ĠÐŀÑĩ": 2617,
      "ĠÐĶÑĥ": 2618,
      "Ð¸ÑĩÐ°": 2619,
      "ÑĮÑĤÐµ": 2620,
      "ĠÐ¿Ð¾ÑģÑĤÐ¾": 2621,
      "ĠÑģÐ²Ð¾ÐµÐ¼Ñĥ": 2622,
      "ĠÐ´Ð°Ð»ÑĮÑĪÐµ": 2623,
      "ĠÑĢÑĥÑĩ": 2624,
      "Ð·Ð´": 2625,
      "ĠÑĢÐµÐº": 2626,
      "ĠÐ¿Ð¾ÑĩÑĤ": 2627,
      "ĠÑģÑĤÐ¾Ð»Ð°": 2628,
      "ĠÑģÐºÐ°Ð¶Ñĥ": 2629,
      "ĠÐ±ÐµÐ¶": 2630,
      "ĠÐ·Ð°Ð¶": 2631,
      "Ð»ÑıÑı": 2632,
      "ĠÐ³Ð¾Ð»Ð¾Ð²Ñĭ": 2633,
      "ĠÐ²Ð¾ÑģÐºÐ»Ð¸ÐºÐ½ÑĥÐ»": 2634,
      "ĠÑģÐ°Ð¿": 2635,
      "ĠÐ²Ð¾Ð»Ð¾ÑģÑĭ": 2636,
      "ĠÐ½Ð°Ñħ": 2637,
      "Ð¾Ð·Ð´": 2638,
      "ĠÐ¿ÑĢÐ¾ÑħÐ¾Ð´": 2639,
      "ĠÑĢÐ°Ð½": 2640,
      "ĠÑģÑĤÑĥÐ»": 2641,
      "ĠÐ¾ÑĩÐµÐ²": 2642,
      "ÐºÐ°Ð¼": 2643,
      "ĠÐ¿Ð¾ÐºÐ¾Ð¹": 2644,
      "Ðķ": 2645,
      "Ð¾Ð¶Ñĥ": 2646,
      "ĠÐľÐ¾Ð¶ÐµÑĤ": 2647,
      "ĠÐ¾Ð¶Ð¸Ð²": 2648,
      "ĠÐ¸Ð·Ð´": 2649,
      "ĠÑģÐ¼ÑĥÑĤ": 2650,
      "ĠÐ²ÐµÐ»Ð¸Ñĩ": 2651,
      "ĠÐ¾ÑģÑĤÐ°Ð½": 2652,
      "ĠÐ½Ð°ÐºÐ»Ð¾Ð½": 2653,
      "ÐŃ": 2654,
      "ĠÐľÐ¸ÑħÐ°": 2655,
      "ĠÑģÑĤÑĢÐ¾Ð³Ð¾": 2656,
      "ĠÐ±ÐµÑģÐ¿Ð¾ÐºÐ¾Ð¹": 2657,
      "Ð°Ð²ÑĪÐ¸ÑģÑĮ": 2658,
      "ÑĤÐ°Ðº": 2659,
      "Ð»Ð°Ðº": 2660,
      "ĠÐ£Ð¶": 2661,
      "ĠÑħÐ¾ÑĤÐ¸ÑĤÐµ": 2662,
      "ĠÐ³Ð°Ð·": 2663,
      "ÐµÐ´Ñĥ": 2664,
      "ĠÐ´ÑĢÑĥÐ³Ð¾Ðµ": 2665,
      "ĠÑģÐ»Ð°Ð´": 2666,
      "ÐµÐ¿ÐµÑĤ": 2667,
      "ĠÐ½Ð°ÑĩÐ°Ð»Ð°": 2668,
      "ĠÐ½Ð¾Ð¶": 2669,
      "ĠÐ²Ð¸Ð½": 2670,
      "Ð¸ÑĩÐµÐ³Ð¾": 2671,
      "ĠÐ¾Ð±ÑıÐ·": 2672,
      "ÐµÐ·Ð°Ð¿": 2673,
      "ĠÑĥÐ³Ð¾Ð»": 2674,
      "ĠÐ·Ð°ÑģÐ¼Ðµ": 2675,
      "ÑĢÐµÐº": 2676,
      "Ð°Ð½Ð½Ð¾Ðµ": 2677,
      "ĠÑģÐ¾Ð¿": 2678,
      "ĠÑģÐ¿ÑĢÐ°Ð²": 2679,
      "ĠÐľÐ¸ÑħÐ°Ð¹Ð»Ð¾Ð²": 2680,
      "ĠÐ¿Ð¾ÐºÐ°Ð·ÑĭÐ²": 2681,
      "ĠÐ©": 2682,
      "Ð¾Ð»Ðº": 2683,
      "Ð°Ð²ÑĪÐµÐ³Ð¾": 2684,
      "ĠÐµÑħÐ°ÑĤÑĮ": 2685,
      "ĠÐĲÐ»ÐµÑĪÐ°": 2686,
      "Ð»ÑĭÐ¹": 2687,
      "Ð°Ð½Ð¸Ð½": 2688,
      "ĠÐ²ÑģÐ»ÐµÐ´": 2689,
      "ÑĥÐ¶ÐµÐ»Ð¸": 2690,
      "ĠÑģÐºÑĢ": 2691,
      "ĠÐ¿ÑĢÐ¾Ð¸Ð·Ð½ÐµÑģ": 2692,
      "Ð½Ð¸ÑĨÐµ": 2693,
      "ĠÐ¾Ð±ÑĬÑıÐ²": 2694,
      "ÑİÐ¼": 2695,
      "Ð¾Ð»ÑĮÐ½Ð¾": 2696,
      "ĠÐ¼ÑĥÐ¶Ñĩ": 2697,
      "Ðĳ": 2698,
      "ÑĤÐ°Ð»": 2699,
      "Ð¾Ð½Ñĥ": 2700,
      "Ð½ÐµÐ»": 2701,
      "ĠÐ¼Ð¾Ð³Ð»Ð¸": 2702,
      "ĠÐ¿ÑĢÐ°Ð²Ð¾": 2703,
      "ĠÑĥÐ²Ð°Ð¶": 2704,
      "ĠÐºÑĢÑĥÐ¶": 2705,
      "ĠÐ¿ÐµÑĢÐµÐº": 2706,
      "ĠÐ²Ð¾Ð·Ð±": 2707,
      "Ð²ÐµÑĢÑħ": 2708,
      "ÑģÑĤÑĢÐµÐ»": 2709,
      "ĠÐ¿ÑĢÐµ": 2710,
      "ĠÐŁÑĢÐ°Ð²": 2711,
      "ĠÐ¿Ð¾ÐºÐ°Ð·Ð°Ð»Ð¾ÑģÑĮ": 2712,
      "ÐµÐµÑĤÑģÑı": 2713,
      "ĠÑĩÐ°Ð¹": 2714,
      "ĠÑĥÐ»ÑĭÐ±Ð½ÑĥÐ»ÑģÑı": 2715,
      "ĠÐ½ÐµÐ²Ð¾Ð·Ð¼": 2716,
      "ĠÐĲÐ½Ð´ÑĢÐµ": 2717,
      "ĠÐ²ÑģÑĤÐ°Ð²": 2718,
      "ĠÐºÐ°ÐºÑĥÑİ": 2719,
      "ĠÐ´Ð°Ð»ÐµÐºÐ¾": 2720,
      "ĠÐ¿Ð¾ÑĩÑĥÐ²ÑģÑĤÐ²Ð¾Ð²Ð°Ð»": 2721,
      "ĠÐ½Ð°Ð¼ÐµÑĢ": 2722,
      "ĠÑģÑĤÐ¾Ð»ÑĮ": 2723,
      "ĠÐĲÐºÑģ": 2724,
      "ĠÐ¾ÑĤÐºÐ°Ð·": 2725,
      "ĠÐ±ÐµÑĢÐµÐ³": 2726,
      "ĠÐĳÐ¾ÑĢÐ¸Ñģ": 2727,
      "ĠÐ¾Ð´Ð½Ð¸Ð¼": 2728,
      "ĠÐ¶ÐµÐ½ÑīÐ¸Ð½Ñĭ": 2729,
      "ĠÐ²ÐµÑĢÐ½Ð¾": 2730,
      "ĠÐ¼Ð¾Ð»ÑĩÐ°Ð»": 2731,
      "ĠÑĤÑı": 2732,
      "ĠÐ²Ð¾Ð·Ð¼Ð¾Ð¶": 2733,
      "ĠÐ´Ð¾Ð»Ð¶Ð½Ñĭ": 2734,
      "ÑĥÐ¹ÑĤÐµ": 2735,
      "ĠÐ¸Ð´ÐµÑĤ": 2736,
      "ĠÐ»Ð¾ÑĪÐ°Ð´ÐµÐ¹": 2737,
      "ÑĩÐ°ÑĤ": 2738,
      "ĠÐ½Ð°ÑģÐ»": 2739,
      "ĠÐ³ÑĥÑģ": 2740,
      "ĠÐ·Ð°Ð¿Ð°Ñħ": 2741,
      "ĠÑģÐ°Ð¼ÑĭÐ¹": 2742,
      "ĠÐ½Ð°ÑĩÐ¸Ð½": 2743,
      "ĠÐ»Ð°Ð´Ð¾Ð½": 2744,
      "ĠÐ½ÐµÐ¿Ð¾Ð´Ð²Ð¸Ð¶": 2745,
      "Ð¸ÑĪÐºÐ°": 2746,
      "ĠÐ³ÑĢÑĥÑģÑĤ": 2747,
      "ĠÐ»ÑİÐ±Ð¸ÑĤ": 2748,
      "ĠÑģÐ¿Ð¾ÑģÐ¾Ð±": 2749,
      "ĠÐ¿Ð»Ð¾Ñħ": 2750,
      "ĠÐ¾Ð±ÑĢÐ°Ð·Ð¾Ð¼": 2751,
      "Ð»Ð°Ð½": 2752,
      "Ð¸ÑĢÐ°Ñı": 2753,
      "ĠÐ´ÑĥÐ¼Ð°Ð»Ð°": 2754,
      "ĠÑģÐ»Ð¾Ð¶": 2755,
      "ĠÑģÑĤÐ¾ÑıÐ»Ð°": 2756,
      "ĠÐ¿Ð¾Ð³Ð»ÑıÐ´": 2757,
      "ÑĢÐ°Ð»": 2758,
      "ĠÐ³Ð¾Ð»Ð¾Ð²Ðµ": 2759,
      "ĠÐ´ÐµÐ´": 2760,
      "Ð¾ÑĢÐ¾Ð½": 2761,
      "ÑĥÐ¼Ñı": 2762,
      "ĠÐ¢ÑĥÑĢ": 2763,
      "ĠÐĵÐ¾Ð²Ð¾ÑĢ": 2764,
      "ÑĢÐµÑĪ": 2765,
      "Ð¸Ð»Ð¾Ð²": 2766,
      "Ð¾ÑĢÐ²": 2767,
      "ĠÑįÐº": 2768,
      "Ð»ÐµÐ½Ð½ÑĭÐ¹": 2769,
      "ĠÐ½Ð°ÑģÑĤ": 2770,
      "ĠÐºÐ°ÐºÐ¾Ð³Ð¾": 2771,
      "Ð¾Ð»ÑĮÑĪ": 2772,
      "ĠÐ²ÐµÑģÑĮÐ¼Ð°": 2773,
      "Ð¸Ð½Ð¾": 2774,
      "ĠÑģÑĬ": 2775,
      "ĠÐ¼Ð¸Ð³": 2776,
      "ĠÑĤÑĢÐ°Ð²": 2777,
      "ĠÐ½ÐµÑĩÐµÐ³Ð¾": 2778,
      "ĠÑĥÐ½": 2779,
      "Ð±Ð¾": 2780,
      "Ð¾ÑĩÐºÐ¸": 2781,
      "ÐµÑĢÑĥ": 2782,
      "ĠÑĤÐ¾Ñĩ": 2783,
      "ĠÑģÑĤÑĢÐ°ÑĪÐ½Ð¾": 2784,
      "ĠÐ¿ÑĢÐ¸ÐµÑħÐ°Ð»": 2785,
      "ĠÑĥÐ´ÐµÑĢÐ¶": 2786,
      "ĠÐ¿ÑĢÐ¸Ð±Ð°Ð²Ð¸Ð»": 2787,
      "Ð²ÑĭÑĩÐ°Ð¹": 2788,
      "ĠÑģÐ¸Ð»ÑĮÐ½Ð¾": 2789,
      "ÑĢÐ°ÑģÑĤ": 2790,
      "ĠÐ³Ð¾Ð²Ð¾ÑĢÑı": 2791,
      "ĠÐ²Ð¿ÐµÑĩÐ°ÑĤ": 2792,
      "Ð²ÐµÐ´": 2793,
      "ĠÐ¿Ð¾Ð´Ð´": 2794,
      "ÐµÐ½ÑĮÐºÐ¸Ð¹": 2795,
      "ĠÑģÐ¿ÐµÑĪ": 2796,
      "ĠÐ²Ð·Ð´ÑĢ": 2797,
      "Ð´Ñĭ": 2798,
      "Ð¾Ð»ÐµÑĤ": 2799,
      "ĠÐ¼ÑĥÐ·": 2800,
      "ÑĢÑıÐ¶": 2801,
      "ĠÐ²Ð½ÑĥÑĤÑĢ": 2802,
      "ĠÑģÑĩÐ°ÑģÑĤÑĮ": 2803,
      "ĠÐ¸Ð¼ÐµÐ»": 2804,
      "ĠÑĥÑģÐ¿Ð¾ÐºÐ¾": 2805,
      "ĠÐĴÑĢÐ¾Ð½": 2806,
      "ÑĥÑĪÐºÑĥ": 2807,
      "ĠÐĲÐºÑģÐ¸Ð½": 2808,
      "ĠÐ³Ð¾Ð»Ð¾ÑģÐ°": 2809,
      "ĠÑģÐ»ÐµÐ³": 2810,
      "ĠÐŁÐµÑĤÐµÑĢÐ±ÑĥÑĢÐ³": 2811,
      "ĠÐ¼Ð¸Ð½ÑĥÑĤÑĭ": 2812,
      "Ð´ÐµÑĤ": 2813,
      "Ð¾Ð´Ð½Ð¾": 2814,
      "ĠÐ¡Ð°Ð¼Ð³Ð¸Ð½Ð°": 2815,
      "ĠÐ¿Ð»Ð°ÑĤÑĮÐµ": 2816,
      "ĠÑĥÐ¹": 2817,
      "ÐĿÐµ": 2818,
      "ĠÐ±Ð°ÑĢÑĭÑĪ": 2819,
      "ĠÑĥÑģÐ»ÑĭÑĪ": 2820,
      "ĠÐ¾Ð´Ð½Ð¾Ð¼": 2821,
      "ĠÐ´ÑĢÑĥÐ³Ð¾Ð³Ð¾": 2822,
      "ĠÐ½Ð°ÑĪÐ¸": 2823,
      "ÑĭÐ»Ð°": 2824,
      "ĠÑģÐ²ÐµÐ¶": 2825,
      "ĠÐ¾Ð±Ð°": 2826,
      "ĠÐºÑĥÑħ": 2827,
      "Ð¾ÑĢÐµ": 2828,
      "ĠÐĴÐ°Ð»": 2829,
      "ĠÐļÐ¸ÑĢ": 2830,
      "ĠÐ³Ð¾Ð»Ð¾Ð²Ð°": 2831,
      "ÑģÑıÑĤ": 2832,
      "Ð¾Ð³Ñĥ": 2833,
      "ĠÑģÑĤÑĢÐµÐ¼": 2834,
      "ĠÐ¾Ð±ÐµÑī": 2835,
      "ĠÐ§ÐµÑĢÐµÐ·": 2836,
      "ĠÑģÐ¾Ð¼Ð½": 2837,
      "ĠÐ¼Ð°ÑĢ": 2838,
      "ĠÐµÐ¶ÐµÐ»Ð¸": 2839,
      "ĠÑĢÐ°Ð²Ð½": 2840,
      "Ð¾Ð»Ð¾Ð¶": 2841,
      "Ð¾ÑĩÐ¸Ð»": 2842,
      "ĠÐ§ÐµÐ³Ð¾": 2843,
      "ÑİÑģÑĮ": 2844,
      "ÐµÐ·Ð´Ð°": 2845,
      "ĠÐ²Ð½ÐµÐ·Ð°Ð¿": 2846,
      "ĠÑĩÑĢÐµÐ·Ð²ÑĭÑĩÐ°Ð¹": 2847,
      "ĠÐ¾ÑĪÐ¸Ð±": 2848,
      "ĠÐ¼ÐµÑĢÑĤÐ²": 2849,
      "ĠÐķÑīÐµ": 2850,
      "ĠÐ´ÑĥÑĪÐ¸": 2851,
      "ÑģÐ½Ð¾": 2852,
      "ĠÐ²Ð¸Ð´Ð¸Ð¼Ð¾": 2853,
      "ĠÑħÐ°ÑĢ": 2854,
      "ĠÐ¢Ð°Ð¼": 2855,
      "ĠÐĿÐ°ÐºÐ¾Ð½ÐµÑĨ": 2856,
      "Ð½ÑĥÐ»Ð¸ÑģÑĮ": 2857,
      "ĠÐ¿Ð¾Ð´ÑħÐ¾Ð´": 2858,
      "Ð°Ð¶Ð´Ñĭ": 2859,
      "Ð¾Ð¹ÑĤÐ¸": 2860,
      "Ð¾Ð½Ðµ": 2861,
      "ĠÑĤÑĢÑĥÐ±": 2862,
      "ĠÐķÐ»ÐµÐ½Ð°": 2863,
      "Ð¾ÑĩÐµÐ¼": 2864,
      "ĠÐ³Ð¾ÑģÐ¿Ð¾Ð´Ð°": 2865,
      "Ð½Ð°Ð»": 2866,
      "ĠÐºÐ¾Ð·": 2867,
      "Ð½Ð°ÑĩÐµ": 2868,
      "ĠÑĥÐ·Ð½Ð°Ð»": 2869,
      "ĠÐ¿Ð»Ð¾ÑĤ": 2870,
      "ĠÑĦÐ¸Ð³ÑĥÑĢ": 2871,
      "ĠÐ¼Ð°Ñħ": 2872,
      "Ð°Ð½Ð½Ð°Ñı": 2873,
      "ÑĥÐ¶Ðµ": 2874,
      "ĠÐļÐ°Ð·": 2875,
      "Ð¾ÑĩÐºÑĥ": 2876,
      "ĠÐ¿ÑĢÐ¸Ð½ÐµÑģ": 2877,
      "ĠÐ½ÐµÐ½Ð°Ð²": 2878,
      "ĠÐ¾Ð±Ð¼Ð°Ð½": 2879,
      "ĠÑģÑĤÐ¾ÑıÐ»Ð¸": 2880,
      "Ð»Ð¾ÑģÑĮ": 2881,
      "ĠÐ¼ÐµÑĤ": 2882,
      "ÑįÑĤ": 2883,
      "ĠÐĿÐ°Ð´Ð¾": 2884,
      "ĠÐ·Ð°ÐºÐ»ÑİÑĩ": 2885,
      "ĠÐľÐ°ÑĢÐ³Ð°ÑĢ": 2886,
      "ĠÐºÐ°ÑĢÐ¼Ð°Ð½": 2887,
      "ĠÐ½ÐµÐ¾Ð±ÑĭÐºÐ½Ð¾Ð²": 2888,
      "Ð°Ð²Ð»Ð¸Ð²": 2889,
      "ÐµÐ²ÐµÐ»": 2890,
      "Ð¾ÐºÐ¾ÑĦ": 2891,
      "ĠÐ»Ð¾ÑĪÐ°Ð´ÑĮ": 2892,
      "ĠÐ¿ÑĢÐ¾ÑĦ": 2893,
      "ĠÐ¸ÑģÐºÑĢ": 2894,
      "ĠÐ²ÑĭÑĪÐ»Ð°": 2895,
      "ĠÐ´Ð¸Ðº": 2896,
      "ĠÐ³ÑĢÑĥÐ´ÑĮ": 2897,
      "ĠÐ¤Ð¾Ð¼Ð°": 2898,
      "ĠÐ¿ÐµÑĢÐµÐ¿": 2899,
      "ĠÑĤÐ¾ÑĢÐ¶Ðµ": 2900,
      "ÐµÐ½Ð½Ð¾Ð¼": 2901,
      "ĠÐŁÑĢÐ¾ÐºÐ¾ÑĦ": 2902,
      "ĠÐ½Ð°ÑģÐ¼ÐµÑĪ": 2903,
      "Ð¾Ð²Ð°Ð»ÑģÑı": 2904,
      "ÐµÑĤÑĥ": 2905,
      "ĠÑħÐ¾ÑĩÐµÑĪÑĮ": 2906,
      "Ð»Ð°Ð¶": 2907,
      "Ð¾Ð³Ð¸": 2908,
      "ĠÑĢÑĥÐºÐµ": 2909,
      "ĠÐºÐ¾ÑĢÐ¾Ð»": 2910,
      "ĠÐĶÑĢ": 2911,
      "ÐµÑĢÐ½Ð°": 2912,
      "ĠÑĥÑĪÐµÐ»": 2913,
      "ĠÐ´Ð¾Ð»Ð³": 2914,
      "ĠÑģÐ¾ÑģÑĤÐ°Ð²": 2915,
      "Ð°Ð½Ð¸Ð¹": 2916,
      "ĠÐ³ÐµÑĢ": 2917,
      "ĠÐ½ÐµÑĥÐ´": 2918,
      "Ð¾ÑĪÐ»Ð¸": 2919,
      "ĠÐ³Ð»ÑĥÑħ": 2920,
      "ÑĢÐµÐ¶": 2921,
      "ĠÐĿÐ¸ÑĩÐµÐ³Ð¾": 2922,
      "ĠÐ¿Ð¾Ð´Ð¾Ð·ÑĢ": 2923,
      "ĠÐĽÑĥÐ¶": 2924,
      "ĠÐĳÐµÐ·": 2925,
      "ĠÐŁÐ°ÑĢ": 2926,
      "ĠÑĤÑĢÐµÑħ": 2927,
      "ĠÑģÐ¾Ð±ÑģÑĤÐ²ÐµÐ½": 2928,
      "ĠÐ½Ð¾ÑĩÐ¸": 2929,
      "Ð¼Ð°ÑĢ": 2930,
      "ĠÐ·Ð½Ð°Ð»Ð°": 2931,
      "ĠÑģÐ»ÐµÐ³ÐºÐ°": 2932,
      "ĠÐ¸Ð·ÑĥÐ¼": 2933,
      "ĠÑĪÐº": 2934,
      "ĠÐ¼Ð¾ÑģÑĤ": 2935,
      "ĠÐ¾ÐºÐ½Ð¾": 2936,
      "ĠÑģÐ¸Ð´ÐµÐ»Ð°": 2937,
      "ĠÐ¿ÑĢÐ¾ÑĤÑı": 2938,
      "ĠÑĥÐ¶Ð°ÑģÐ½Ð¾": 2939,
      "ĠÑģÑĤÐ°Ðº": 2940,
      "ĠÐ·Ð°Ñī": 2941,
      "ĠÐ¶ÐµÐ»ÑĤ": 2942,
      "Ð°ÑİÑīÐ¸Ð¹": 2943,
      "ĠÐ±Ð¾Ð³Ð°": 2944,
      "ĠÐ°ÑĢÐ¼": 2945,
      "ĠÐĴÐ¸Ð´": 2946,
      "Ð¸ÑĨÐµÐ¹": 2947,
      "ÑıÐ»Ð¾": 2948,
      "ĠÐ´ÐµÑĤÐµÐ¹": 2949,
      "ĠÐŀÐ´Ð¸Ð½": 2950,
      "ÑģÐºÐ¾ÑĢÐ±": 2951,
      "ÑĮÐµÐ²Ð¸Ñĩ": 2952,
      "ĠÐ¿ÑĭÑĤ": 2953,
      "ĠÐ¿ÑĢÐµÐ»": 2954,
      "ĠÐĹÐ°ÑĩÐµÐ¼": 2955,
      "ĠÐ¾Ð±ÑĢÐ°ÑĤÐ¸Ð»ÑģÑı": 2956,
      "ĠÐ¿Ð¾Ð¼Ð¾Ñī": 2957,
      "ĠÑģÑħÐ¾Ð´": 2958,
      "Ð°Ð½Ñı": 2959,
      "ĠÐ¿Ð¾Ð´ÑĬ": 2960,
      "ÑĭÐ²Ð°ÐµÑĤ": 2961,
      "ĠÐ²Ð¾Ð·Ð²ÑĢÐ°Ñī": 2962,
      "ĠÐ´Ð¾Ð³Ð°Ð´": 2963,
      "ĠÑĤÑĢÐµÑĤÑĮ": 2964,
      "ĠÐ·Ð°Ð½ÑıÑĤ": 2965,
      "ĠÐ½Ð°ÑģÑĤÐ¾ÑıÑī": 2966,
      "ĠÐŀÐ¿": 2967,
      "ÐµÐ·Ð´Ðµ": 2968,
      "ĠÑĥÑģÐ¸Ð»": 2969,
      "ÐĹ": 2970,
      "ĠÑģÑĥÐ´ÑĮ": 2971,
      "ĠÑģÑĤÐ¸Ñħ": 2972,
      "Ð¿ÑĢÐ¾ÑĩÐµÐ¼": 2973,
      "ĠÐ³Ð¾ÑģÑĤÐ¸Ð½": 2974,
      "ÐºÐ°Ðº": 2975,
      "ĠÑģÐµÑĢÐ´Ð¸ÑĤÐ¾": 2976,
      "Ð½Ð°ÑĩÐ°Ð»Ð°": 2977,
      "ĠÐ¾ÑĩÐµÐ²Ð¸Ð´Ð½Ð¾": 2978,
      "ĠÐ¿Ð»Ð¾Ñī": 2979,
      "Ð¾ÑĢÐ¾Ð¼": 2980,
      "Ð»Ð°ÑĪ": 2981,
      "ĠÐ³ÑĥÑģÑĤ": 2982,
      "ĠÑģÐ¾Ð»Ð½ÑĨÐµ": 2983,
      "Ð»ÐµÐ²": 2984,
      "ÐºÐ¾Ð²Ð°": 2985,
      "ĠÐ½ÐµÐ¿ÑĢÐµÐ¼ÐµÐ½Ð½Ð¾": 2986,
      "Ð»ÑıÑĤ": 2987,
      "Ð¾ÑĩÑĮ": 2988,
      "ĠÐ´ÐµÑģÑıÑĤÑĮ": 2989,
      "ĠÐ²ÑģÐ¿Ð¾Ð¼Ð½Ð¸Ð»": 2990,
      "ÑĮÑıÐ½": 2991,
      "ĠÐ¿ÑĢÐ¸Ð±Ð»": 2992,
      "ĠÐŁÐ°Ð½ÑĤ": 2993,
      "ĠÐĶÐµÐ½": 2994,
      "ĠÐ´Ð²Ð°Ð´ÑĨÐ°ÑĤÑĮ": 2995,
      "ĠÑĥÐºÐ°Ð·": 2996,
      "ĠÑĨÐµÐ¿": 2997,
      "ĠÐ´Ð¾ÑĢÐ¾Ð³Ðµ": 2998,
      "Ð¸Ð¼Ð°Ñı": 2999
    },
    "merges": [
      [
        "Ġ",
        "Ð"
      ],
      [
        "Ð",
        "¾"
      ],
      [
        "Ð",
        "°"
      ],
      [
        "Ð",
        "µ"
      ],
      [
        "Ñ",
        "Ĥ"
      ],
      [
        "Ð",
        "¸"
      ],
      [
        "Ñ",
        "ģ"
      ],
      [
        "Ð¾",
        "Ð"
      ],
      [
        "Ð",
        "½"
      ],
      [
        "Ñ",
        "Ģ"
      ],
      [
        "Ð",
        "»"
      ],
      [
        "Ñ",
        "ĥ"
      ],
      [
        "Ð°",
        "Ð"
      ],
      [
        "Ñ",
        "ı"
      ],
      [
        "Ðµ",
        "Ð"
      ],
      [
        "Ñ",
        "Į"
      ],
      [
        "Ñ",
        "ĭ"
      ],
      [
        "Ġ",
        "Ñģ"
      ],
      [
        "ĠÐ",
        "¿"
      ],
      [
        "ĠÐ",
        "½"
      ],
      [
        "ĠÐ",
        "²"
      ],
      [
        "Ð",
        "º"
      ],
      [
        "Ñ",
        "ĩ"
      ],
      [
        "Ð",
        "²"
      ],
      [
        "Ð",
        "´"
      ],
      [
        "ĠÐ",
        "¾"
      ],
      [
        "ĠÐ",
        "¸"
      ],
      [
        "Ð",
        "¼"
      ],
      [
        "Ð°",
        "Ð»"
      ],
      [
        "ÑĤ",
        "Ð¾"
      ],
      [
        "ĠÐ",
        "º"
      ],
      [
        "Ñ",
        "Ī"
      ],
      [
        "Ð¾Ð",
        "²"
      ],
      [
        "Ñ",
        "ħ"
      ],
      [
        "Ñģ",
        "ÑĤ"
      ],
      [
        "Ðµ",
        "Ð½"
      ],
      [
        "ĠÐ",
        "´"
      ],
      [
        "ĠÐ",
        "±"
      ],
      [
        "Ð¾Ð",
        "»"
      ],
      [
        "Ġ",
        "-"
      ],
      [
        "Ġ",
        "ÑĤ"
      ],
      [
        "Ðµ",
        "ÑĢ"
      ],
      [
        "Ðµ",
        "Ð»"
      ],
      [
        "³",
        "Ð¾"
      ],
      [
        "Ñ",
        "İ"
      ],
      [
        "ĠÐ",
        "¼"
      ],
      [
        "Ð¾Ð",
        "¼"
      ],
      [
        "Ð¸",
        "Ð»"
      ],
      [
        "Ð½",
        "Ð¾"
      ],
      [
        "Ġ",
        "Ñĩ"
      ],
      [
        "Ðµ",
        "ÑĤ"
      ],
      [
        "Ð°Ð",
        "º"
      ],
      [
        "ĠÐ¿",
        "ÑĢ"
      ],
      [
        "Ñĥ",
        "Ð"
      ],
      [
        "ÑĤ",
        "ÑĮ"
      ],
      [
        "ĠÐ",
        "·"
      ],
      [
        "Ð¾Ð",
        "´"
      ],
      [
        "ĠÐ½",
        "Ðµ"
      ],
      [
        "Ġ",
        "ÑĢ"
      ],
      [
        "Ð°Ð",
        "·"
      ],
      [
        "Ð¾Ð",
        "¹"
      ],
      [
        "Ð¸",
        "Ð"
      ],
      [
        "Ð½",
        "Ð°"
      ],
      [
        "Ð¾",
        "ÑĢ"
      ],
      [
        "ĠÐ",
        "µ"
      ],
      [
        "ĠÐ½",
        "Ð°"
      ],
      [
        "Ġ-",
        "-"
      ],
      [
        "Ñģ",
        "Ñı"
      ],
      [
        "Ð",
        "¿"
      ],
      [
        "ÐµÐ",
        "¼"
      ],
      [
        "Ð¾",
        "Ñģ"
      ],
      [
        "Ð°Ð",
        "¼"
      ],
      [
        "Ð°",
        "Ð½"
      ],
      [
        "ĠÐ",
        "³"
      ],
      [
        "Ñ",
        "Ĩ"
      ],
      [
        "Ð°",
        "Ñģ"
      ],
      [
        "Ð½",
        "Ñĭ"
      ],
      [
        "Ġ",
        "Ñĥ"
      ],
      [
        "Ð°Ð",
        "²"
      ],
      [
        "Ð",
        "±"
      ],
      [
        "Ð¾",
        "ÑĤ"
      ],
      [
        "Ð¸",
        "Ð½"
      ],
      [
        "Ð",
        "·"
      ],
      [
        "ÐµÐ",
        "´"
      ],
      [
        "Ñ",
        "ī"
      ],
      [
        "ĠÐ",
        "»"
      ],
      [
        "Ð¸",
        "ÑĤ"
      ],
      [
        "Ð¾Ð",
        "½"
      ],
      [
        "Ð°",
        "ÑĢ"
      ],
      [
        "ĠÐ±",
        "Ñĭ"
      ],
      [
        "Ð¸",
        "Ð²"
      ],
      [
        "ĠÑĩ",
        "ÑĤÐ¾"
      ],
      [
        "Ð¸",
        "Ð¼"
      ],
      [
        "Ġ",
        "Ñ"
      ],
      [
        "Ð¾Ð",
        "³"
      ],
      [
        "â",
        "Ģ"
      ],
      [
        "Ñģ",
        "Ðº"
      ],
      [
        "ĠÐ",
        "¶"
      ],
      [
        "Ð°",
        "ÑĤ"
      ],
      [
        "Ð°Ð",
        "´"
      ],
      [
        "ĠÐ¾",
        "ÑĤ"
      ],
      [
        "Ð¸",
        "Ðº"
      ],
      [
        "Ð°",
        "Ñı"
      ],
      [
        "Ð",
        "¹"
      ],
      [
        "ÐµÐ",
        "¹"
      ],
      [
        "Ð¾Ð",
        "±"
      ],
      [
        "ĠÐ¾",
        "Ð½"
      ],
      [
        "Ð¾Ð",
        "³Ð¾"
      ],
      [
        "Ð°",
        "ÑĤÑĮ"
      ],
      [
        "ĠÐ",
        "Ŀ"
      ],
      [
        "ĠÑ",
        "į"
      ],
      [
        "ÐµÐ",
        "²"
      ],
      [
        "ĠÑģ",
        "ÑĤ"
      ],
      [
        "Ñģ",
        "ÑĮ"
      ],
      [
        "Ð¾Ð",
        "¶"
      ],
      [
        "Ð¾Ð",
        "º"
      ],
      [
        "Ð",
        "³"
      ],
      [
        "Ð½",
        "Ñĥ"
      ],
      [
        "ĠÐº",
        "Ð°Ðº"
      ],
      [
        "ĠÐ",
        "Ĵ"
      ],
      [
        "ĠÐ",
        "Ł"
      ],
      [
        "Ð»",
        "Ð¸"
      ],
      [
        "ĠÐ¿",
        "Ð¾"
      ],
      [
        "ĠÐ²",
        "Ñĭ"
      ],
      [
        "ĠÐ²",
        "Ñģ"
      ],
      [
        "Ġ",
        "Ñı"
      ],
      [
        "Ð¸",
        "Ðµ"
      ],
      [
        "Ñĥ",
        "Ð´"
      ],
      [
        "Ð¾Ð»",
        "ÑĮ"
      ],
      [
        "ÑĤÐ¾",
        "ÑĢ"
      ],
      [
        "Ð",
        "³Ð¾"
      ],
      [
        "ÑĥÐ",
        "¶"
      ],
      [
        "ÑģÑĤ",
        "Ð²"
      ],
      [
        "ĠÑģ",
        "Ðº"
      ],
      [
        "Ð¸",
        "Ð´"
      ],
      [
        "ĠÐ",
        "ŀ"
      ],
      [
        "Ġ",
        "Ñħ"
      ],
      [
        "Ð",
        "¶"
      ],
      [
        "âĢ",
        "¦"
      ],
      [
        "Ð¸",
        "Ñĩ"
      ],
      [
        "ĠÐ",
        "¡"
      ],
      [
        "Ð¸",
        "Ñħ"
      ],
      [
        "ĠÑģ",
        "Ð²"
      ],
      [
        "ÐµÐ",
        "·"
      ],
      [
        "ĠÐ±Ñĭ",
        "Ð»"
      ],
      [
        "Ð¸Ð",
        "¹"
      ],
      [
        "ÐµÐ",
        "³Ð¾"
      ],
      [
        "ÐµÐ",
        "±"
      ],
      [
        "ĠÐ",
        "°"
      ],
      [
        "Ð»",
        "Ñı"
      ],
      [
        "ĠÐ¾",
        "Ð±"
      ],
      [
        "Ðº",
        "Ð¾"
      ],
      [
        "ÐµÐ",
        "º"
      ],
      [
        "Ð°Ð»",
        "Ð°"
      ],
      [
        "ĠÐµ",
        "Ð³Ð¾"
      ],
      [
        "ĠÐ",
        "Ĳ"
      ],
      [
        "Ð¸",
        "Ñı"
      ],
      [
        "ĠÐ",
        "ļ"
      ],
      [
        "Ð¸",
        "ÑĤÑĮ"
      ],
      [
        "ĠÐ¿",
        "Ð¾Ð´"
      ],
      [
        "Ð°Ð",
        "¶"
      ],
      [
        "Ð¾Ð",
        "·"
      ],
      [
        "ÑĥÐ",
        "³"
      ],
      [
        "ĠÑģ",
        "Ð»"
      ],
      [
        "Ð°Ð»",
        "Ð¸"
      ],
      [
        "Ð´",
        "Ð°"
      ],
      [
        "ÐµÐ",
        "¿"
      ],
      [
        "ÐµÐ»",
        "ÑĮ"
      ],
      [
        "Ðµ",
        "Ñģ"
      ],
      [
        "ĠÑĤ",
        "Ð°Ðº"
      ],
      [
        "Ðµ",
        "Ñĩ"
      ],
      [
        "Ðº",
        "Ð°"
      ],
      [
        "ĠÐ¸",
        "Ð·"
      ],
      [
        "ĠÐ",
        "ľ"
      ],
      [
        "ĠÐ·",
        "Ð°"
      ],
      [
        "Ðµ",
        "ÑģÑĤ"
      ],
      [
        "ÑĢ",
        "Ð°"
      ],
      [
        "ĠÐ",
        "ĺ"
      ],
      [
        "Ñĥ",
        "ÑĤ"
      ],
      [
        "ĠÐ",
        "Ķ"
      ],
      [
        "Ð¾",
        "Ñĩ"
      ],
      [
        "Ðµ",
        "ÑĪ"
      ],
      [
        "Ð°Ð¼",
        "Ð¸"
      ],
      [
        "Ð¾Ð²",
        "Ð¾ÑĢ"
      ],
      [
        "ĠÑĢ",
        "Ð°Ð·"
      ],
      [
        "ĠÑį",
        "ÑĤÐ¾"
      ],
      [
        "Ñĥ",
        "Ð¼"
      ],
      [
        "ĠÐº",
        "ÑĢ"
      ],
      [
        "Ð½",
        "Ðµ"
      ],
      [
        "Ð¸",
        "ÑĨ"
      ],
      [
        "Ð»",
        "Ð°"
      ],
      [
        "ÐµÐ½",
        "ÑĮ"
      ],
      [
        "Ð¾",
        "ÑģÑĤ"
      ],
      [
        "ĠÐ",
        "¢"
      ],
      [
        "ĠÐ²Ñģ",
        "Ðµ"
      ],
      [
        "Ġ",
        "ÑĪ"
      ],
      [
        "Ð¾Ð",
        "¿"
      ],
      [
        "Ðº",
        "Ð¸"
      ],
      [
        "Ġ",
        "ÑĤÐ¾"
      ],
      [
        "Ñĭ",
        "Ð²"
      ],
      [
        "ĠÑį",
        "ÑĤ"
      ],
      [
        "ĠÑģÐº",
        "Ð°Ð·"
      ],
      [
        "ÐµÐ",
        "¶"
      ],
      [
        "ĠÐº",
        "Ð¾"
      ],
      [
        "Ð°Ð",
        "¿"
      ],
      [
        "Ñĭ",
        "Ð¹"
      ],
      [
        "Ð¸Ð",
        "·"
      ],
      [
        "Ð½Ñĭ",
        "Ð¹"
      ],
      [
        "ĠÑģ",
        "Ð¿"
      ],
      [
        "Ð½",
        "Ñı"
      ],
      [
        "ĠÐ¿",
        "ÐµÑĢ"
      ],
      [
        "Ñĥ",
        "ÑĪ"
      ],
      [
        "ĠÐ¾",
        "Ð½Ð°"
      ],
      [
        "Ðº",
        "Ñĥ"
      ],
      [
        "ĠÑģÐ²",
        "Ð¾"
      ],
      [
        "Ð¾",
        "ÑĪ"
      ],
      [
        "Ð°Ð",
        "¹"
      ],
      [
        "Ð°Ñģ",
        "ÑĮ"
      ],
      [
        "Ñĥ",
        "Ñĩ"
      ],
      [
        "ĠÐ½",
        "Ð¾"
      ],
      [
        "ÑĥÐ",
        "±"
      ],
      [
        "Ñī",
        "Ðµ"
      ],
      [
        "Ñ",
        "Ħ"
      ],
      [
        "Ð°Ð",
        "±"
      ],
      [
        "Ð½",
        "Ð¾Ð¹"
      ],
      [
        "ĠÐ¶",
        "Ðµ"
      ],
      [
        "âĢ",
        "ĵ"
      ],
      [
        "ÐµÐ½",
        "Ð½Ð¾"
      ],
      [
        "ÑĢ",
        "ÑĥÐ³"
      ],
      [
        "Ð½Ñĭ",
        "Ð¼"
      ],
      [
        "ĠÐ¾",
        "Ð´"
      ],
      [
        "Ð¾Ð»ÑĮ",
        "ÐºÐ¾"
      ],
      [
        "Ð¸Ð»",
        "Ð°"
      ],
      [
        "ÑĥÐ",
        "¿"
      ],
      [
        "Ñĥ",
        "Ñİ"
      ],
      [
        "Ð¸",
        "ÑĢ"
      ],
      [
        "ĠÐ¿",
        "Ð¾Ð»"
      ],
      [
        "ÐµÐ",
        "³"
      ],
      [
        "ĠÐ",
        "³Ð¾"
      ],
      [
        "ĠÐºÐ¾",
        "ÑĤÐ¾ÑĢ"
      ],
      [
        "Ð¸Ð»",
        "Ð¸"
      ],
      [
        "Ġ",
        "\""
      ],
      [
        "Ð¾Ð³",
        "Ð´Ð°"
      ],
      [
        "Ð°Ð",
        "³"
      ],
      [
        "Ð½Ñĥ",
        "Ð»"
      ],
      [
        "ĠÐµ",
        "Ðµ"
      ],
      [
        "ĠÐ±ÑĭÐ»",
        "Ð¾"
      ],
      [
        "ÑģÑĤ",
        "ÑĮ"
      ],
      [
        "Ð¾Ð¼",
        "Ñĥ"
      ],
      [
        "ĠÐ",
        "¯"
      ],
      [
        "Ñĭ",
        "Ð¼"
      ],
      [
        "ĠÐ´",
        "Ð²"
      ],
      [
        "Ð½",
        "Ð¾Ð³Ð¾"
      ],
      [
        "Ð¾",
        "Ðµ"
      ],
      [
        "Ð¸",
        "Ñģ"
      ],
      [
        "ĠÐ¿",
        "Ð¾Ñģ"
      ],
      [
        "ĠÐ³",
        "Ð»"
      ],
      [
        "Ð°",
        "Ñİ"
      ],
      [
        "Ð¼",
        "Ñĥ"
      ],
      [
        "Ġ",
        "ÑĥÐ¶"
      ],
      [
        "ĠÐ³",
        "Ð¾Ð²Ð¾ÑĢ"
      ],
      [
        "Ð½Ñĭ",
        "Ðµ"
      ],
      [
        "Ñı",
        "ÑĤ"
      ],
      [
        "ĠÐ",
        "ĵ"
      ],
      [
        "Ð°",
        "Ñħ"
      ],
      [
        "Ð¾Ñģ",
        "ÑĮ"
      ],
      [
        "ĠÐ»",
        "Ñİ"
      ],
      [
        "ĠÐ",
        "Ľ"
      ],
      [
        "Ð°Ð»",
        "ÑĮ"
      ],
      [
        "Ð°",
        "ÐµÑĤ"
      ],
      [
        "ÐµÐ½",
        "Ñı"
      ],
      [
        "ĠÑĤ",
        "ÑĢ"
      ],
      [
        "ĠÑĢ",
        "Ñĥ"
      ],
      [
        "Ñĭ",
        "Ðµ"
      ],
      [
        "ĠÐŀ",
        "Ð½"
      ],
      [
        "Ġ",
        "âĢĵ"
      ],
      [
        "ĠÑģ",
        "Ð¼"
      ],
      [
        "ĠÐ³",
        "Ð¾Ð»"
      ],
      [
        "Ð¸",
        "ÑĪ"
      ],
      [
        "ĠÐ",
        "ĳ"
      ],
      [
        "ÑĢ",
        "Ð¾Ñģ"
      ],
      [
        "Ð¸Ð»",
        "ÑģÑı"
      ],
      [
        "ĠÑģ",
        "Ð°Ð¼"
      ],
      [
        "ÑģÑĤ",
        "ÑĢ"
      ],
      [
        "Ñĥ",
        "ÑĢ"
      ],
      [
        "ĠÑĢ",
        "Ð°Ñģ"
      ],
      [
        "ÐµÐ½",
        "Ð¸"
      ],
      [
        "ĠÐ²",
        "Ð·"
      ],
      [
        "Ð¾Ð²",
        "Ð°"
      ],
      [
        "Ð°",
        "ÑĪ"
      ],
      [
        "Ð°Ð»",
        "ÑģÑı"
      ],
      [
        "ĠÐ±",
        "ÑĥÐ´"
      ],
      [
        "Ñĭ",
        "Ñħ"
      ],
      [
        "ĠÑĤ",
        "Ñĭ"
      ],
      [
        "ĠÐ¼",
        "ÐµÐ½Ñı"
      ],
      [
        "Ð½",
        "Ð¸Ðº"
      ],
      [
        "Ð´",
        "Ðµ"
      ],
      [
        "ÐµÐ½",
        "Ð¸Ðµ"
      ],
      [
        "Ð¸ÑĤ",
        "ÐµÐ»ÑĮ"
      ],
      [
        "Ñħ",
        "Ð¾Ð´"
      ],
      [
        "ĠÑģÐºÐ°Ð·",
        "Ð°Ð»"
      ],
      [
        "Ð½Ð°",
        "Ñı"
      ],
      [
        "Ñģ",
        "Ð¿"
      ],
      [
        "ĠÑģ",
        "ÐµÐ±"
      ],
      [
        "ĠÐ¼",
        "Ð½Ðµ"
      ],
      [
        "ÐµÑĢ",
        "ÑĮ"
      ],
      [
        "ĠÐ",
        "ł"
      ],
      [
        "ÐµÐ½",
        "Ð¸Ñı"
      ],
      [
        "Â",
        "ł"
      ],
      [
        "ĠÐ³",
        "ÑĢ"
      ],
      [
        "Ð½Ñĭ",
        "Ñħ"
      ],
      [
        "ĠÐ²",
        "Ð¸Ð´"
      ],
      [
        "ĠÐµ",
        "Ð¼Ñĥ"
      ],
      [
        "Ð¸",
        "Ð½Ð°"
      ],
      [
        "ÐµÐ»",
        "Ð¾Ð²"
      ],
      [
        "Ð¸Ð",
        "±"
      ],
      [
        "ĠÐ¿",
        "Ð¾ÑĤ"
      ],
      [
        "ĠÑĤ",
        "Ð¾Ð»ÑĮÐºÐ¾"
      ],
      [
        "Ð½Ð¾",
        "Ðµ"
      ],
      [
        "ĠÐ¿",
        "Ð¾Ðº"
      ],
      [
        "ĠÐ¿",
        "Ð»"
      ],
      [
        "ĠÐ½",
        "Ð°Ð´"
      ],
      [
        "ÑĢ",
        "Ð°Ð²"
      ],
      [
        "ĠÑ",
        "Ħ"
      ],
      [
        "ÑĤ",
        "Ðµ"
      ],
      [
        "Ð¸Ð",
        "³"
      ],
      [
        "ĠÐµ",
        "ÑīÐµ"
      ],
      [
        "ĠÐ¾",
        "Ð¿"
      ],
      [
        "ÑĪ",
        "Ðµ"
      ],
      [
        "ĠÐ´",
        "ÐµÐ»"
      ],
      [
        "Ðµ",
        "Ñħ"
      ],
      [
        "ÐµÐ»",
        "Ð¸"
      ],
      [
        "Ð¸ÑĤ",
        "Ðµ"
      ],
      [
        "Ñĥ",
        "Ñħ"
      ],
      [
        "Ñı",
        "ÑĤÑĮ"
      ],
      [
        "ÐµÐ¼",
        "Ñĥ"
      ],
      [
        "ĠÐ·",
        "Ð½Ð°"
      ],
      [
        "ĠÐ",
        "§"
      ],
      [
        "ĠÐ´",
        "ÑĢÑĥÐ³"
      ],
      [
        "Ñı",
        "Ð»"
      ],
      [
        "ĠÐ³Ð»",
        "Ð°Ð·"
      ],
      [
        "ÑģÑĤ",
        "Ð°Ð²"
      ],
      [
        "ĠÐ",
        "ķ"
      ],
      [
        "ĠÐ¸",
        "Ð¼"
      ],
      [
        "ÑĤ",
        "Ð¸"
      ],
      [
        "Ñĭ",
        "ÑĪ"
      ],
      [
        "ÑĢ",
        "ÐµÐ¼"
      ],
      [
        "ĠÐ¿ÑĢ",
        "ÐµÐ´"
      ],
      [
        "ĠÐ¾",
        "Ñĩ"
      ],
      [
        "ĠÐ¾ÑĤ",
        "Ð²"
      ],
      [
        "ĠÐ³Ð¾",
        "ÑĢ"
      ],
      [
        "Ñĥ",
        "Ð²"
      ],
      [
        "ÑģÑĤ",
        "Ð¸"
      ],
      [
        "ÑĥÐ",
        "·"
      ],
      [
        "Ð¾ÑĤ",
        "ÑĢ"
      ],
      [
        "Ð½",
        "Ð¸"
      ],
      [
        "ĠÐ¿ÑĢ",
        "Ð¾"
      ],
      [
        "ĠÐ²",
        "Ð¾Ð·"
      ],
      [
        "ĠÑĥÐ¶",
        "Ðµ"
      ],
      [
        "Ð°Ð½",
        "Ð¾Ð²"
      ],
      [
        "ĠÐ±",
        "Ð»"
      ],
      [
        "ÐµÐ»",
        "Ð°"
      ],
      [
        "ĠÐ",
        "Ĺ"
      ],
      [
        "ĠÑģÑĤ",
        "Ð°ÑĢ"
      ],
      [
        "Ñĥ",
        "Ð»"
      ],
      [
        "Ðº",
        "Ðµ"
      ],
      [
        "Ð¸Ð",
        "¶"
      ],
      [
        "ÑĮ",
        "Ñı"
      ],
      [
        "Ðº",
        "Ð¾Ð²"
      ],
      [
        "ĠÐ¼",
        "Ð¾Ð»"
      ],
      [
        "Ðµ",
        "ÑĨ"
      ],
      [
        "ĠÐ¼",
        "Ñĭ"
      ],
      [
        "Ð¾Ð±",
        "ÑĢ"
      ],
      [
        "Ð°Ð»",
        "Ð¾"
      ],
      [
        "Ġ",
        "ÑĨ"
      ],
      [
        "Ðº",
        "Ð¾Ð¹"
      ],
      [
        "ĠÑĩ",
        "ÐµÐ»Ð¾Ð²"
      ],
      [
        "ĠÐ»",
        "Ð¸ÑĨ"
      ],
      [
        "ÐµÑĪ",
        "ÑĮ"
      ],
      [
        "Ð¸",
        "ÑģÑĤ"
      ],
      [
        "ĠÐ»Ñİ",
        "Ð±"
      ],
      [
        "Ð»",
        "Ð¸Ð²"
      ],
      [
        "ĠÐ¼",
        "Ð¾Ð³"
      ],
      [
        "Ð»",
        "Ñİ"
      ],
      [
        "ĠÐº",
        "Ð¾Ð½"
      ],
      [
        "ÑĤ",
        "Ð¾Ð±"
      ],
      [
        "ĠÐ¾",
        "Ñģ"
      ],
      [
        "ĠÐĿ",
        "Ð¾"
      ],
      [
        "ĠÐ",
        "Ń"
      ],
      [
        "Ðµ",
        "ÑģÐº"
      ],
      [
        "Ð¸Ð¼",
        "Ð¸"
      ],
      [
        "ĠÐ¼",
        "Ð¾"
      ],
      [
        "ĠÑĩ",
        "ÐµÑĢ"
      ],
      [
        "ĠÐ½",
        "ÐµÐ³Ð¾"
      ],
      [
        "ÑĢ",
        "Ð°Ð½"
      ],
      [
        "ĠÑģ",
        "Ð¾"
      ],
      [
        "ĠÐ¾",
        "Ðº"
      ],
      [
        "ĠÐŁ",
        "ÑĢ"
      ],
      [
        "ĠÑĤ",
        "ÐµÐ±"
      ],
      [
        "ĠÐº",
        "Ð¾Ð³Ð´Ð°"
      ],
      [
        "Ð»Ñı",
        "Ð´"
      ],
      [
        "ĠÑĩ",
        "ÑĤÐ¾Ð±"
      ],
      [
        "ĠÐ±",
        "Ð¾Ð»ÑĮ"
      ],
      [
        "ĠÐ±",
        "ÐµÐ·"
      ],
      [
        "ĠÐ¼",
        "Ð¾Ð¶"
      ],
      [
        "ĠÐ¸",
        "Ñħ"
      ],
      [
        "ĠÑĩÐµÐ»Ð¾Ð²",
        "ÐµÐº"
      ],
      [
        "ĠÐ½",
        "Ð¸"
      ],
      [
        "ĠÐ",
        "£"
      ],
      [
        "Ð°Ñı",
        "ÑģÑĮ"
      ],
      [
        "ÑĢ",
        "Ð°ÑĤ"
      ],
      [
        "ĠÐ´",
        "Ð»Ñı"
      ],
      [
        "Ñģ",
        "Ð»"
      ],
      [
        "ÐµÐ¿",
        "ÐµÑĢÑĮ"
      ],
      [
        "Ð¸",
        "ÑģÑĮ"
      ],
      [
        "ĠÐ²",
        "ÐµÑĢ"
      ],
      [
        "Ð¾Ð»",
        "Ð¶"
      ],
      [
        "Ðµ",
        "Ðµ"
      ],
      [
        "Ñģ",
        "Ð»Ð¸"
      ],
      [
        "Ñ",
        "Ĭ"
      ],
      [
        "Ð¸",
        "Ð¸"
      ],
      [
        "ĠÐ¿Ð¾Ñģ",
        "Ð»"
      ],
      [
        "Ð»",
        "Ð¾"
      ],
      [
        "ĠÐ´",
        "Ð¾"
      ],
      [
        "Ð²",
        "ÐµÑĢ"
      ],
      [
        "ĠÐ²",
        "Ð¾"
      ],
      [
        "Ð°",
        "ÑģÑĤ"
      ],
      [
        "Ð½Ñĥ",
        "Ñİ"
      ],
      [
        "ĠÐ¿",
        "Ð¾Ð½"
      ],
      [
        "ÑĥÐ²",
        "ÑģÑĤÐ²"
      ],
      [
        "ĠÑĥ",
        "Ð´"
      ],
      [
        "ĠÐ¿",
        "Ð¾Ð²"
      ],
      [
        "Ð°Ð»",
        "Ð¾ÑģÑĮ"
      ],
      [
        "Ð½",
        "Ð¾Ð²"
      ],
      [
        "Ñĥ",
        "ÑģÑĤ"
      ],
      [
        "ĠÑģ",
        "Ð¾Ð²"
      ],
      [
        "ÐµÑĤ",
        "Ðµ"
      ],
      [
        "ĠÐ¿Ð¾",
        "Ñĩ"
      ],
      [
        "ĠÐ¿",
        "Ð¾ÑĢ"
      ],
      [
        "ĠÑħ",
        "Ð¾ÑĤ"
      ],
      [
        "Ð´",
        "Ñĥ"
      ],
      [
        "ĠÐ·",
        "Ð°Ð¼"
      ],
      [
        "ÐµÑĤ",
        "ÑģÑı"
      ],
      [
        "ĠÐ»",
        "Ð¸"
      ],
      [
        "ĠÐ",
        "¤"
      ],
      [
        "Ð´",
        "ÑĢ"
      ],
      [
        "ĠÑģÐµÐ±",
        "Ñı"
      ],
      [
        "Ð»",
        "ÐµÐ½"
      ],
      [
        "ĠÐĶ",
        "Ð°"
      ],
      [
        "Ð¸Ð",
        "¿"
      ],
      [
        "ĠÐº",
        "Ð¾Ð¼"
      ],
      [
        "ÑĢ",
        "Ñĭ"
      ],
      [
        "ĠÐ¶",
        "ÐµÐ½"
      ],
      [
        "Ð°",
        "Ñĩ"
      ],
      [
        "ĠÐ½",
        "Ð°Ð¿"
      ],
      [
        "ĠÐĿ",
        "Ðµ"
      ],
      [
        "Ð°Ð²",
        "ÑĪ"
      ],
      [
        "Ð°Ð»Ð¸",
        "ÑģÑĮ"
      ],
      [
        "Ð¾",
        "Ñħ"
      ],
      [
        "ÐµÑĤ",
        "ÑĮ"
      ],
      [
        "ĠÐ¾Ð½",
        "Ð¸"
      ],
      [
        "ĠÐ±Ñĭ",
        "ÑĤÑĮ"
      ],
      [
        "Ð½",
        "Ð¾Ð¼"
      ],
      [
        "Ð¾",
        "Ñİ"
      ],
      [
        "ĠÐ¿",
        "Ð¾Ð¼"
      ],
      [
        "Ð¸Ð»",
        "Ð°ÑģÑĮ"
      ],
      [
        "ĠÐ¿ÑĢ",
        "Ð¸"
      ],
      [
        "ĠÐ¾Ñĩ",
        "ÐµÐ½ÑĮ"
      ],
      [
        "ĠÐ½Ð°",
        "Ñģ"
      ],
      [
        "ĠÐ´",
        "ÑĥÐ¼"
      ],
      [
        "ĠÐ²",
        "Ð´"
      ],
      [
        "ĠÐ´",
        "Ð°"
      ],
      [
        "ĠÐ³Ð¾Ð»",
        "Ð¾Ð²"
      ],
      [
        "ĠÑģ",
        "ÐµÑĢ"
      ],
      [
        "Ñ",
        "ĳ"
      ],
      [
        "Ð¼",
        "Ð¸"
      ],
      [
        "ĠÑĤ",
        "ÐµÐ¼"
      ],
      [
        "ĠÑĤ",
        "ÐµÐ¿ÐµÑĢÑĮ"
      ],
      [
        "Ð°Ð¶",
        "Ðµ"
      ],
      [
        "ĠÐ²",
        "Ð¾ÑĤ"
      ],
      [
        "ĠÐ±ÑĭÐ»",
        "Ð°"
      ],
      [
        "Ð°Ð»",
        "Ð°ÑģÑĮ"
      ],
      [
        "Ð»",
        "Ñĭ"
      ],
      [
        "Ð°ÑĤÑĮ",
        "ÑģÑı"
      ],
      [
        "ĠÐ»Ñİ",
        "Ð´"
      ],
      [
        "ĠÐ½",
        "Ð¸Ðº"
      ],
      [
        "ÑĮ",
        "Ñİ"
      ],
      [
        "ÑĢ",
        "Ñı"
      ],
      [
        "ĠÐ²",
        "Ð°Ñģ"
      ],
      [
        "ĠÑģÐ¿",
        "ÑĢÐ¾Ñģ"
      ],
      [
        "Ðº",
        "Ð¾Ð¼"
      ],
      [
        "ĠÑģ",
        "Ð¾Ð±"
      ],
      [
        "ĠÐ½Ð°",
        "Ñĩ"
      ],
      [
        "ĠÐ²",
        "ÑĢÐµÐ¼"
      ],
      [
        "ĠÑĥ",
        "Ð¼"
      ],
      [
        "Ð¸ÑĤÐµÐ»ÑĮ",
        "Ð½Ð¾"
      ],
      [
        "ĠÐĲ",
        "Ð½"
      ],
      [
        "ĠÐ¸",
        "Ð»Ð¸"
      ],
      [
        "ÑĥÐ´",
        "Ð°"
      ],
      [
        "ĠÐ´",
        "Ð¾Ð¼"
      ],
      [
        "-",
        "-"
      ],
      [
        "ÑĤ",
        "ÑĢ"
      ],
      [
        "ÑĥÐ´",
        "ÑĮ"
      ],
      [
        "ĠÐ´",
        "Ð°Ð¶Ðµ"
      ],
      [
        "ĠÐ½",
        "ÐµÐ¿"
      ],
      [
        "ĠÐ¾",
        "ÑģÑĤ"
      ],
      [
        "ĠÐŀ",
        "Ð½Ð°"
      ],
      [
        "ĠÑĩ",
        "ÐµÐ¼"
      ],
      [
        "Ñģ",
        "Ðµ"
      ],
      [
        "Ð¸Ð²",
        "ÑĪ"
      ],
      [
        "ĠÑģ",
        "ÑĤÐ¾"
      ],
      [
        "ĠÐ²",
        "Ð¾Ñģ"
      ],
      [
        "Ð¾Ð¶",
        "Ðµ"
      ],
      [
        "Ð¸ÑĤÑĮ",
        "ÑģÑı"
      ],
      [
        "ĠÐº",
        "Ð°Ð·"
      ],
      [
        "Ð´",
        "ÐµÐ»"
      ],
      [
        "ĠÐ·",
        "Ð°Ðº"
      ],
      [
        "ĠÐĿ",
        "Ñĥ"
      ],
      [
        "Ð½",
        "Ð¸Ð¼"
      ],
      [
        "Ð¸Ð»",
        "ÑĮ"
      ],
      [
        "ĠÐ·",
        "Ð½"
      ],
      [
        "ĠÐ·",
        "Ð°Ð¿"
      ],
      [
        "ĠÐĺ",
        "Ð²"
      ],
      [
        "ĠÐŃ",
        "ÑĤÐ¾"
      ],
      [
        "ÑĢ",
        "ÐµÐ´"
      ],
      [
        "ÑĢ",
        "Ð¾Ð²"
      ],
      [
        "Ð¾ÑĢ",
        "Ð¾ÑĪ"
      ],
      [
        "Ð¸Ð½",
        "Ñĥ"
      ],
      [
        "ÑģÑĤÐ²",
        "Ð¾"
      ],
      [
        "ÐµÑĢ",
        "Ð¶"
      ],
      [
        "ĠÑĩÑĤÐ¾Ð±",
        "Ñĭ"
      ],
      [
        "ĠÐļ",
        "Ð°Ðº"
      ],
      [
        "ĠÐ²",
        "Ð¿"
      ],
      [
        "ĠÐµ",
        "Ð¹"
      ],
      [
        "ĠÐ½",
        "Ð¸Ñĩ"
      ],
      [
        "ĠÑĩ",
        "ÑĥÐ²ÑģÑĤÐ²"
      ],
      [
        "ĠÐ½",
        "ÐµÑĤ"
      ],
      [
        "Ð½ÑĭÐ¼",
        "Ð¸"
      ],
      [
        "ÑĢ",
        "Ð°Ð·"
      ],
      [
        "ĠÐ½Ð°",
        "ÑĪ"
      ],
      [
        "ĠÐ¿ÑĢ",
        "Ð°Ð²"
      ],
      [
        "Ð¸Ð»Ð¸",
        "ÑģÑĮ"
      ],
      [
        "ĠÐº",
        "Ð¾Ð»"
      ],
      [
        "Ð¸ÑĪ",
        "ÑĮ"
      ],
      [
        "ĠÐ±",
        "ÐµÑģ"
      ],
      [
        "ĠÐ½",
        "ÐµÐ¼"
      ],
      [
        "Ðµ",
        "Ñī"
      ],
      [
        "ÑĨ",
        "Ð°"
      ],
      [
        "ĠÐ²",
        "Ð°Ð¼"
      ],
      [
        "Ð»Ñĭ",
        "Ð±"
      ],
      [
        "ĠÐ±",
        "Ð¾Ð»"
      ],
      [
        "ĠÑĥ",
        "Ð²"
      ],
      [
        ".",
        "."
      ],
      [
        "ĠÐ±Ñĭ",
        "Ð»Ð¸"
      ],
      [
        "ĠÑĥ",
        "Ð»ÑĭÐ±"
      ],
      [
        "ĠÑģÐ»",
        "Ð¾Ð²"
      ],
      [
        "Ð°ÑĤ",
        "ÐµÐ»ÑĮ"
      ],
      [
        "Ð½",
        "ÐµÐ¹"
      ],
      [
        "ĠÑģÐµÐ±",
        "Ðµ"
      ],
      [
        "ĠÐ¶",
        "Ð¸Ð·"
      ],
      [
        "Ð°Ñİ",
        "ÑĤ"
      ],
      [
        "Ñĭ",
        "Ð»"
      ],
      [
        "ĠÐ³Ð¾Ð»",
        "Ð¾Ñģ"
      ],
      [
        "ĠÐ²Ð´",
        "ÑĢÑĥÐ³"
      ],
      [
        "ĠÐ¡",
        "ÑĤ"
      ],
      [
        "ĠÐ¡",
        "Ð°Ð¼"
      ],
      [
        "ĠÐĲ",
        "Ð»"
      ],
      [
        "ĠÐ¿ÑĢ",
        "Ð¾Ñģ"
      ],
      [
        "ĠÐ´",
        "ÑĢ"
      ],
      [
        "ÑĢÐ°",
        "ÑĪ"
      ],
      [
        "ĠÐºÑĢ",
        "Ð°Ñģ"
      ],
      [
        "Ñĩ",
        "Ð°Ñģ"
      ],
      [
        "Ð°Ð·",
        "ÑĭÐ²"
      ],
      [
        "ĠÑģÐºÐ°Ð·",
        "Ð°Ð»Ð°"
      ],
      [
        "ĠÑĤ",
        "Ð¾Ð³Ð¾"
      ],
      [
        "ĠÐº",
        "Ð¾ÑĢ"
      ],
      [
        "ÐµÐ´",
        "ÑĮ"
      ],
      [
        "Ñĥ",
        "Ñģ"
      ],
      [
        "Ñĭ",
        "ÑĤ"
      ],
      [
        "ĠÐľ",
        "Ð°ÑĢ"
      ],
      [
        "ĠÑģÑĤ",
        "Ð¾Ð»"
      ],
      [
        "Ð½",
        "Ð¸ÑĨ"
      ],
      [
        "ĠÐ¾",
        "Ð³"
      ],
      [
        "ĠÐº",
        "Ð½Ñı"
      ],
      [
        "ĠÐ½",
        "Ð¸Ð¼"
      ],
      [
        "ĠÐ§",
        "ÑĤÐ¾"
      ],
      [
        "ĠÐ¿",
        "Ð¾Ð¿"
      ],
      [
        "ĠÐ²",
        "Ð°ÑĪ"
      ],
      [
        "Ñĥ",
        "Ðº"
      ],
      [
        "ĠÐ¿ÐµÑĢ",
        "ÐµÐ´"
      ],
      [
        "ÑĤ",
        "Ð°"
      ],
      [
        "Ġ",
        "ÑĥÐ³"
      ],
      [
        "ĠÐ¾ÑĤ",
        "Ðº"
      ],
      [
        "Ðº",
        "Ð¸Ð¹"
      ],
      [
        "Ñı",
        "Ð½"
      ],
      [
        "ĠÐ³Ð»Ð°Ð·",
        "Ð°"
      ],
      [
        "Ñı",
        "Ð·"
      ],
      [
        "Ð½Ð¾",
        "ÑģÑĤÑĮ"
      ],
      [
        "ÑģÐº",
        "Ð¸Ð¹"
      ],
      [
        "Ð°Ð¶",
        "Ð´"
      ],
      [
        "ĠÐ²",
        "Ð¾Ð»"
      ],
      [
        "ÐµÑĢ",
        "Ð°"
      ],
      [
        "Ð»",
        "Ð°Ð´"
      ],
      [
        "ĠÐĴ",
        "Ñĭ"
      ],
      [
        "Ġ",
        "("
      ],
      [
        "ĠÐ¼Ð¾Ð¶",
        "ÐµÑĤ"
      ],
      [
        "Ð¾Ð´",
        "Ð°"
      ],
      [
        "ĠÐ·",
        "Ð°Ð±"
      ],
      [
        "\"",
        "."
      ],
      [
        "ĠÐ¸",
        "ÑģÐ¿"
      ],
      [
        "ĠÑįÑĤ",
        "Ð¾Ð³Ð¾"
      ],
      [
        "ĠÐŁ",
        "ÐµÑĤ"
      ],
      [
        "Ð½Ñĥ",
        "Ð²"
      ],
      [
        "ĠÐ½Ð¸Ñĩ",
        "ÐµÐ³Ð¾"
      ],
      [
        "ÑĭÐ¼",
        "Ð¸"
      ],
      [
        "Ð½Ð¾",
        "ÑģÑĤÐ¸"
      ],
      [
        "Ð½Ðµ",
        "Ðµ"
      ],
      [
        "ĠÐµ",
        "ÑģÐ»Ð¸"
      ],
      [
        "Ð°Ð½",
        "Ð¸Ñı"
      ],
      [
        "ÑĢ",
        "Ð°Ñģ"
      ],
      [
        "Ð¸Ð½",
        "ÑĥÑĤ"
      ],
      [
        "ĠÐ±ÑĥÐ´",
        "ÐµÑĤ"
      ],
      [
        "ĠÐ¿",
        "Ð¾Ð·"
      ],
      [
        "Ð½ÑĥÐ»",
        "ÑģÑı"
      ],
      [
        "Ð°Ð½",
        "Ð¸Ðµ"
      ],
      [
        "ĠÐ³",
        "Ð´Ðµ"
      ],
      [
        "Ġ",
        "ÑĥÐ±"
      ],
      [
        "ĠÐ½",
        "ÐµÐ¹"
      ],
      [
        "ÐµÐ»",
        "Ð¾"
      ],
      [
        "Ñı",
        "Ð´"
      ],
      [
        "ĠÐĵ",
        "ÑĢ"
      ],
      [
        "ĠÐ²ÑĢÐµÐ¼",
        "Ñı"
      ],
      [
        "ĠÐ½",
        "ÐµÐ²"
      ],
      [
        "ÑĨ",
        "Ðµ"
      ],
      [
        "ĠÐ¿ÑĢ",
        "Ð¸Ð½"
      ],
      [
        "ÑĤ",
        "Ð¾Ð²"
      ],
      [
        "ĠÑĩ",
        "Ð°Ñģ"
      ],
      [
        "ÑĪ",
        "ÐµÐ»"
      ],
      [
        "ĠÐĿ",
        "Ð°"
      ],
      [
        "ĠÑģÐ¼",
        "Ð¾ÑĤÑĢ"
      ],
      [
        "ĠÑĤÐ¾",
        "ÑĤ"
      ],
      [
        "ĠÐ½",
        "ÐµÐ´"
      ],
      [
        "ĠÐ·",
        "Ð°Ð²"
      ],
      [
        "ĠÑģÑĤ",
        "ÑĢ"
      ],
      [
        "Ðº",
        "Ð°Ð¼Ð¸"
      ],
      [
        "ĠÐ¿ÑĢ",
        "Ð¾Ð´"
      ],
      [
        "ĠÐ³Ð¾Ð²Ð¾ÑĢ",
        "Ð¸Ð»"
      ],
      [
        "³Ð¾",
        "ÑĢ"
      ],
      [
        "Ð¸ÑĤ",
        "ÑģÑı"
      ],
      [
        "ĠÑģÐµÑĢ",
        "Ð´"
      ],
      [
        "Ð¸Ð±",
        "ÑĥÐ´ÑĮ"
      ],
      [
        "Ð¾Ð²",
        "Ð°Ð»"
      ],
      [
        "Ð³",
        "Ð¸Ð½"
      ],
      [
        "ĠÑħ",
        "Ð¾ÑĢÐ¾ÑĪ"
      ],
      [
        "ĠÐĿ",
        "Ð¸Ðº"
      ],
      [
        "ĠÐ½",
        "Ð¾Ð³"
      ],
      [
        "ĠÐ¶",
        "ÐµÐ»"
      ],
      [
        "ĠÐ´",
        "ÐµÐ½ÑĮ"
      ],
      [
        "ĠÐµ",
        "ÑģÑĤÑĮ"
      ],
      [
        "Ð¼",
        "Ð¾ÑĤÑĢ"
      ],
      [
        "ĠÑĤÐµÐ±",
        "Ñı"
      ],
      [
        "ĠÐ",
        "¥"
      ],
      [
        "Ð½",
        "Ð¸Ð±ÑĥÐ´ÑĮ"
      ],
      [
        "Ð¾ÑģÑĤ",
        "Ð¸"
      ],
      [
        "ĠÐ¾Ð¿",
        "ÑıÑĤÑĮ"
      ],
      [
        "Ðµ",
        "Ñİ"
      ],
      [
        "ĠÐº",
        "Ð°ÑĢ"
      ],
      [
        "ĠÐ¾Ð´",
        "Ð¸Ð½"
      ],
      [
        "ĠÐ½",
        "Ð°Ðº"
      ],
      [
        "Ð¸Ð²",
        "Ð°Ñı"
      ],
      [
        "ĠÐºÐ¾Ð¼",
        "Ð½Ð°"
      ],
      [
        "ĠÑĥ",
        "Ñģ"
      ],
      [
        "Ġ",
        "ÑĥÐ¿"
      ],
      [
        "ÑģÑĤÐ²",
        "Ð°"
      ],
      [
        "ĠÑĤ",
        "Ð¾Ð¼"
      ],
      [
        "ĠÑģ",
        "Ð¸Ð´"
      ],
      [
        "ÐµÐ½Ð¸",
        "ÐµÐ¼"
      ],
      [
        "Ñĩ",
        "Ð°"
      ],
      [
        "Ð¸Ñĩ",
        "ÐµÑģÐº"
      ],
      [
        "ĠÑĤÐµÐ±",
        "Ðµ"
      ],
      [
        "ĠÑģÐ¿ÑĢÐ¾Ñģ",
        "Ð¸Ð»"
      ],
      [
        "Ð¸Ð»",
        "Ð¾ÑģÑĮ"
      ],
      [
        "ĠÑįÑĤÐ¾",
        "ÑĤ"
      ],
      [
        "Ð»",
        "Ðµ"
      ],
      [
        "ÑģÑĤÐ²",
        "ÐµÐ½"
      ],
      [
        "ĠÑģ",
        "Ð´ÐµÐ»"
      ],
      [
        "ÑģÑĤÑĢ",
        "Ð¾"
      ],
      [
        "Ð½Ñĥ",
        "Ð»Ð°"
      ],
      [
        "ĠÐ´",
        "Ð¾Ð»Ð¶"
      ],
      [
        "Ñĥ",
        "Ð½"
      ],
      [
        "ĠÑĢ",
        "Ð°Ð´"
      ],
      [
        "ĠÐ¿",
        "Ð¾Ð³"
      ],
      [
        "ĠÐ½Ð°Ð´",
        "Ð¾"
      ],
      [
        "ĠÐ»Ð¸ÑĨ",
        "Ð¾"
      ],
      [
        "ĠÑĤ",
        "Ð°Ð¼"
      ],
      [
        "ÐµÑĢ",
        "Ð¸"
      ],
      [
        "ĠÐĴ",
        "Ð¾ÑĤ"
      ],
      [
        "ÑģÑĤ",
        "ÑĥÐ¿"
      ],
      [
        "\"",
        ","
      ],
      [
        "ĠÐ¼",
        "ÑĥÐ¶"
      ],
      [
        "Ñı",
        "Ð²"
      ],
      [
        "ĠÐ¼",
        "Ð¸Ð½ÑĥÑĤ"
      ],
      [
        "ĠÐ¿ÐµÑĢ",
        "Ð²"
      ],
      [
        "ĠÐ¿ÑĢ",
        "Ð¸Ð²"
      ],
      [
        "Ð»",
        "Ð¾Ð²"
      ],
      [
        "Ð¾ÑĢ",
        "Ð¾Ð²"
      ],
      [
        "Ñı",
        "Ñī"
      ],
      [
        "ĠÐ½Ðµ",
        "Ðµ"
      ],
      [
        "ĠÐ¿ÑĢ",
        "Ð¾ÑĤ"
      ],
      [
        "ĠÐ²",
        "ÑģÑı"
      ],
      [
        "ÑĤÐ¾ÑĢ",
        "Ð¾Ð½"
      ],
      [
        "Ñĩ",
        "Ð½Ð¾"
      ],
      [
        "ÑĥÐ",
        "¹"
      ],
      [
        "Ð¸Ñı",
        "ÑĤ"
      ],
      [
        "ĠÑĤ",
        "ÑĥÑĤ"
      ],
      [
        "Ð¸",
        "Ñİ"
      ],
      [
        "ĠÑĤ",
        "Ð¾Ð»"
      ],
      [
        "Ñĩ",
        "Ð¸Ðº"
      ],
      [
        "ÑĤ",
        "Ñĭ"
      ],
      [
        "ÐµÑĢ",
        "ÐµÐ´"
      ],
      [
        "!",
        ".."
      ],
      [
        "ĠÐ·",
        "Ð²"
      ],
      [
        "Ñı",
        "Ð¼"
      ],
      [
        "ĠÐ¾ÑĤÐ²",
        "ÐµÑĤ"
      ],
      [
        "ÐµÐ½Ð¸",
        "Ð¸"
      ],
      [
        "ĠÑĤ",
        "Ð¾Ð¶Ðµ"
      ],
      [
        "Ð°ÐµÑĤ",
        "ÑģÑı"
      ],
      [
        "ĠÐ²Ð·",
        "Ð³"
      ],
      [
        "ĠÑĢ",
        "ÐµÑĪ"
      ],
      [
        "ĠÐ¢",
        "Ñĭ"
      ],
      [
        "ĠÐ·",
        "Ð°Ð´"
      ],
      [
        "Ñĩ",
        "Ð¸ÑĤ"
      ],
      [
        "ĠÐ´",
        "ÐµÐ²"
      ],
      [
        "ĠÐ¼Ð¾Ð»",
        "Ð¾Ð´"
      ],
      [
        "ĠÐ±ÑĥÐ´",
        "ÑĤÐ¾"
      ],
      [
        "ĠÐ¿Ð¾ÑĤ",
        "Ð¾Ð¼Ñĥ"
      ],
      [
        "Ð¾Ð¼",
        "Ð½"
      ],
      [
        "Ñı",
        "Ð¶"
      ],
      [
        "ÐµÑĢ",
        "ÑĪ"
      ],
      [
        "ĠÑģ",
        "Ð¾Ð»"
      ],
      [
        "ĠÐ½Ðµ",
        "ÑģÐº"
      ],
      [
        "Ñı",
        "ÑģÑĮ"
      ],
      [
        "ĠÐ¸",
        "Ð½"
      ],
      [
        "ĠÐ¢",
        "Ð°Ðº"
      ],
      [
        "ĠÐ±Ð¾Ð»ÑĮ",
        "ÑĪ"
      ],
      [
        "ÑģÐº",
        "Ð¾Ð¹"
      ],
      [
        "Ð°Ñİ",
        "Ñī"
      ],
      [
        "Ñĥ",
        "Ñī"
      ],
      [
        "ĠÐ²ÑģÐµ",
        "Ñħ"
      ],
      [
        "ĠÐ´",
        "ÑĥÑĪ"
      ],
      [
        "ĠÐ¿",
        "Ð¾Ð¶"
      ],
      [
        "Ð¾ÑģÑĤ",
        "ÑĮ"
      ],
      [
        "ĠÐºÐ½Ñı",
        "Ð·"
      ],
      [
        "ÑĢÐ°",
        "ÑĦ"
      ],
      [
        "Ñĭ",
        "Ñĩ"
      ],
      [
        "ÑĤ",
        "Ñĥ"
      ],
      [
        "ĠÐĲÐ»",
        "ÐµÐº"
      ],
      [
        "ĠÐ½",
        "Ð°Ð¼"
      ],
      [
        "ĠÑģ",
        "ÑĤÐ¾ÑĢÐ¾Ð½"
      ],
      [
        "Ð¾Ðº",
        "Ð¾"
      ],
      [
        "ĠÑģ",
        "Ð½"
      ],
      [
        "ĠÐ½",
        "Ð¸Ñħ"
      ],
      [
        "ÑĢ",
        "Ð¾Ð´"
      ],
      [
        "ĠÐ¶",
        "Ð¸Ð²"
      ],
      [
        "ÑģÐº",
        "Ð¾Ð³Ð¾"
      ],
      [
        "ĠÐ±",
        "Ð¾Ð³"
      ],
      [
        "ĠÐ´",
        "Ð¾ÑĢ"
      ],
      [
        "Ð¾Ð²",
        "Ð°ÑĢ"
      ],
      [
        "ÐµÐ³",
        "Ð´Ð°"
      ],
      [
        "ĠÐ¼",
        "Ð°Ð»"
      ],
      [
        "Ð¸Ð»",
        "Ð¾"
      ],
      [
        "Ñİ",
        "ÑĤ"
      ],
      [
        "Ġ",
        "ÑĥÐ·"
      ],
      [
        "ÑĢ",
        "ÑĭÐ²"
      ],
      [
        "ĠÐº",
        "ÑĤÐ¾"
      ],
      [
        "Ð°Ð²",
        "Ð½Ð¾"
      ],
      [
        "Ð²",
        "Ð°ÑĢ"
      ],
      [
        "Ð»",
        "Ð¾Ð½"
      ],
      [
        "ĠÐ²Ñĭ",
        "Ñģ"
      ],
      [
        "ĠÐ²",
        "ÐµÑģ"
      ],
      [
        "Ðµ",
        "ÑģÑı"
      ],
      [
        ",",
        "--"
      ],
      [
        "ÐµÐ½",
        "Ð½ÑĭÐ¹"
      ],
      [
        "Ð¾Ð²",
        "Ð¾Ð»ÑĮ"
      ],
      [
        "ĠÑģÐ²Ð¾",
        "ÐµÐ¹"
      ],
      [
        "Ð°Ðº",
        "Ð¾Ð¼"
      ],
      [
        "ĠÐºÐ¾ÑĤÐ¾ÑĢ",
        "ÑĭÐ¹"
      ],
      [
        "Ð°Ðº",
        "Ð¸"
      ],
      [
        "ÑĢ",
        "Ð¾Ð½"
      ],
      [
        "ĠÑģÐ»",
        "ÑĥÑĩ"
      ],
      [
        "ĠÐ¸Ð·",
        "Ð²"
      ],
      [
        "ĠÐ½",
        "Ð¾Ñĩ"
      ],
      [
        "ĠÐ´ÐµÐ»",
        "Ð¾"
      ],
      [
        "ĠÐ¿ÑĢÐ¾Ð´",
        "Ð¾Ð»Ð¶"
      ],
      [
        "ĠÐ´",
        "Ð¾Ð»"
      ],
      [
        "ÑĢ",
        "Ð¾Ð¼"
      ],
      [
        "Ð¾ÑĪ",
        "ÐµÐ»"
      ],
      [
        "ĠÐ·",
        "Ð°Ð³"
      ],
      [
        "ĠÑĢÑĥ",
        "ÐºÐ¸"
      ],
      [
        "Ð¾Ðº",
        "Ð¾Ð¹"
      ],
      [
        "ÑĢ",
        "Ð°Ð¶"
      ],
      [
        "Ð²",
        "Ð°ÑĤ"
      ],
      [
        "ÐºÐ°",
        "Ñħ"
      ],
      [
        "ĠÑĢÐ°Ð·",
        "Ð³"
      ],
      [
        "ĠÐĿ",
        "ÐµÑĤ"
      ],
      [
        "Ð°",
        "Ð½Ð°"
      ],
      [
        "ĠÑħ",
        "Ð¾Ñĩ"
      ],
      [
        "ĠÑįÑĤ",
        "Ð¾Ð¼"
      ],
      [
        "ĠÑĩ",
        "ÐµÐ³Ð¾"
      ],
      [
        "ĠÐļ",
        "Ð»"
      ],
      [
        "ĠÐ²",
        "ÐµÐ»"
      ],
      [
        "ĠÑĤ",
        "Ð¸Ñħ"
      ],
      [
        "Ñı",
        "Ñģ"
      ],
      [
        "ĠÐ¿Ð¾ÑĤ",
        "Ð¾Ð¼"
      ],
      [
        "Ð¸Ð¼",
        "Ð¾"
      ],
      [
        "ĠÐ½Ðµ",
        "Ñģ"
      ],
      [
        "ĠÑģ",
        "Ð¾Ñģ"
      ],
      [
        "ĠÑģÐ²Ð¾",
        "Ñİ"
      ],
      [
        "ĠÑģÐ»",
        "ÑĭÑĪ"
      ],
      [
        "Ġ",
        "Ñī"
      ],
      [
        "ĠÑĢÑĥ",
        "ÐºÑĥ"
      ],
      [
        "ĠÐ¡Ð°Ð¼",
        "Ð³Ð¸Ð½"
      ],
      [
        "ĠÐ²Ñģ",
        "Ð¿"
      ],
      [
        "ÐµÑģÑĤ",
        "Ðµ"
      ],
      [
        "Ð¸",
        "Ñī"
      ],
      [
        "Ð¸Ð",
        "³Ð¾ÑĢ"
      ],
      [
        "Ð",
        "Ŀ"
      ],
      [
        "Ñĭ",
        "Ðº"
      ],
      [
        "Ðµ",
        "ÑģÑĮ"
      ],
      [
        "ĠÑĢÐ°Ñģ",
        "ÑģÐº"
      ],
      [
        "Ð½",
        "Ñİ"
      ],
      [
        "ĠÐ½ÐµÑģÐº",
        "Ð¾Ð»ÑĮÐºÐ¾"
      ],
      [
        "ĠÐ±",
        "ÐµÐ»"
      ],
      [
        "ĠÐ³",
        "Ð»ÑıÐ´"
      ],
      [
        "Ð¸",
        "Ð½Ñĭ"
      ],
      [
        "Ð¸Ð²",
        "Ð°Ð»"
      ],
      [
        "ĠÐ±Ð¾Ð»",
        "ÐµÐµ"
      ],
      [
        "Ð°Ð¹",
        "ÑĤÐµ"
      ],
      [
        "ĠÐ´",
        "ÐµÑĢ"
      ],
      [
        "ĠÑģ",
        "Ñĭ"
      ],
      [
        "Ð½",
        "ÑĮ"
      ],
      [
        "Ð²",
        "ÐµÑĤ"
      ],
      [
        "ĠÐ¿Ð¾Ð½",
        "Ð¸Ð¼"
      ],
      [
        "ÑĤ",
        "ÐµÑĢ"
      ],
      [
        "ĠÐ¿",
        "Ð°ÑĢ"
      ],
      [
        "Ð¾Ð»",
        "Ð¾Ð´"
      ],
      [
        "ĠÐ»",
        "ÑĥÑĩ"
      ],
      [
        "ĠÐ½",
        "ÑĥÐ¶"
      ],
      [
        "ĠÐ·",
        "Ð°Ñģ"
      ],
      [
        "ĠÐ²",
        "ÐµÐ´ÑĮ"
      ],
      [
        "ĠÐ¼",
        "Ð¾Ð¹"
      ],
      [
        "ĠÐ½",
        "Ð¾Ð²"
      ],
      [
        "ĠÐ·",
        "ÐµÐ¼"
      ],
      [
        "ĠÐ²Ñģ",
        "ÐµÐ³Ð´Ð°"
      ],
      [
        "Ð¸Ð½",
        "Ðµ"
      ],
      [
        "ĠÐ¾ÑĤÐ²",
        "ÐµÑĩ"
      ],
      [
        "Ð»Ð¸",
        "ÑģÑĮ"
      ],
      [
        "ĠÐ±",
        "ÑĢ"
      ],
      [
        "ÐµÐ½",
        "Ð°"
      ],
      [
        "ĠÐ¿Ð¾ÑģÐ»",
        "Ðµ"
      ],
      [
        "ĠÐĵÑĢ",
        "Ð¸Ð³Ð¾ÑĢ"
      ],
      [
        "ĠÐ¾Ñģ",
        "Ð¾Ð±"
      ],
      [
        "ĠÑģÐºÐ°Ð·",
        "Ð°ÑĤÑĮ"
      ],
      [
        "ĠÐ·",
        "Ð°ÑĤ"
      ],
      [
        "ĠÑĢ",
        "Ð°Ð±"
      ],
      [
        "ĠÐ²",
        "ÐµÑĩ"
      ],
      [
        "ĠÐ»",
        "ÐµÑĤ"
      ],
      [
        "ĠÑĤ",
        "Ð¾Ð³Ð´Ð°"
      ],
      [
        "ĠÐĺÐ²",
        "Ð°Ð½Ð¾Ð²"
      ],
      [
        "Ð½",
        "Ð¾Ð¼Ñĥ"
      ],
      [
        "ĠÐ¿ÑĢ",
        "Ð¸Ñģ"
      ],
      [
        "ĠÑĢÐ°Ñģ",
        "Ð¿"
      ],
      [
        "ĠÐ·Ð½Ð°",
        "Ñİ"
      ],
      [
        "ĠÐ¿",
        "Ð¾Ð±"
      ],
      [
        "ĠÐ²",
        "ÑģÑĤÑĢ"
      ],
      [
        "ĠÐĲÐ½",
        "Ð´ÑĢ"
      ],
      [
        "ĠÑĥ",
        "Ðº"
      ],
      [
        "Ð°Ð½",
        "Ð´"
      ],
      [
        "ÐµÑĢ",
        "ÑĤ"
      ],
      [
        "ĠÑģÐ²",
        "ÐµÑĤ"
      ],
      [
        "Ð½Ð¾",
        "Ñİ"
      ],
      [
        "ĠÐ¸",
        "ÑģÐº"
      ],
      [
        "ĠÐ³Ð¾",
        "ÑģÐ¿"
      ],
      [
        "ĠÑĥÐ²",
        "Ð¸Ð´"
      ],
      [
        "Ð¸Ð½",
        "Ð¾Ð²"
      ],
      [
        "ĠÐ²Ñģ",
        "ÐµÐ¼"
      ],
      [
        "Ñĩ",
        "Ð°ÑģÑĤ"
      ],
      [
        "ĠÐºÐ¾ÑĤÐ¾ÑĢ",
        "ÑĭÐµ"
      ],
      [
        "ĠÑħÐ¾ÑĤ",
        "ÐµÐ»"
      ],
      [
        "ĠÐ¶ÐµÐ½",
        "Ñī"
      ],
      [
        "Ð°Ð½",
        "ÑĤ"
      ],
      [
        "ÐµÐ¶",
        "Ð´Ñĥ"
      ],
      [
        "ĠÑįÑĤ",
        "Ð¸"
      ],
      [
        "Ð»",
        "Ð°Ñģ"
      ],
      [
        "ĠÐ",
        "¨"
      ],
      [
        "ĠÐ³Ð¾Ð»Ð¾Ð²",
        "Ñĥ"
      ],
      [
        "ĠÐ½",
        "Ð°Ð·"
      ],
      [
        "ĠÐ¿ÑĢ",
        "Ð¸Ðº"
      ],
      [
        "ĠÐ½",
        "ÐµÐ±"
      ],
      [
        "ĠÐ½",
        "Ð°Ð²"
      ],
      [
        "Ñĭ",
        "Ð´"
      ],
      [
        "ĠÐĴ",
        "ÑģÐµ"
      ],
      [
        "ĠÐ²",
        "Ð¾Ð¿"
      ],
      [
        "ĠÐ¾",
        "ÑģÑĤÐ°Ð²"
      ],
      [
        "Ð»Ð¸Ð²",
        "Ð¾"
      ],
      [
        "ĠÐ»",
        "ÐµÐ³"
      ],
      [
        "Ð¾",
        "Ñī"
      ],
      [
        "ĠÐ±",
        "Ð°ÑĢ"
      ],
      [
        "Ñģ",
        "ÐµÐ¼"
      ],
      [
        "ĠÐ±Ð¾Ð»ÑĮ",
        "ÑĪÐµ"
      ],
      [
        "ĠÑģÐ¾Ð²",
        "ÐµÑĢÑĪ"
      ],
      [
        "ĠÐ¿ÑĢ",
        "Ð¸Ð±"
      ],
      [
        "ĠÐ¿Ð¾ÑģÐ»",
        "ÐµÐ´"
      ],
      [
        "ĠÑģÐ»",
        "Ð¾Ð²Ð°"
      ],
      [
        "Ð²",
        "Ð¾ÑĢ"
      ],
      [
        "ĠÑĢÐ°Ñģ",
        "Ñģ"
      ],
      [
        "ĠÐºÐ°Ðº",
        "Ð¾Ð¹"
      ],
      [
        "ĠÐ¿Ð¾Ð´",
        "ÑĥÐ¼"
      ],
      [
        "ÑĪ",
        "Ð¸Ð¹"
      ],
      [
        "ĠÐ²Ñģ",
        "Ñĳ"
      ],
      [
        "Ñĥ",
        "ÑģÐº"
      ],
      [
        "ĠÐ³",
        "ÑĥÐ±"
      ],
      [
        "ĠÐ¸",
        "Ð´"
      ],
      [
        "ĠÑģÑĤ",
        "Ð°Ð»"
      ],
      [
        "ĠÑĢ",
        "Ð¾Ð´"
      ],
      [
        "ĠÐ¼",
        "Ð¸Ð»"
      ],
      [
        "ĠÐ·Ð°Ð¼",
        "ÐµÑĤ"
      ],
      [
        "ĠÐ´Ð¾ÑĢ",
        "Ð¾Ð³"
      ],
      [
        "Ð¾Ð½",
        "ÐµÑĨ"
      ],
      [
        "ĠÐ½ÐµÐ¿",
        "ÑĢ"
      ],
      [
        "ĠÐĿÐ¸Ðº",
        "Ð¾Ð»"
      ],
      [
        "Ð½Ñĥ",
        "ÑĤÑĮ"
      ],
      [
        "ĠÑģÐ»",
        "ÐµÐ´"
      ],
      [
        "ÐµÐ»",
        "Ñı"
      ],
      [
        "ÑĢÐ°",
        "Ñī"
      ],
      [
        "ĠÐ»ÑİÐ´",
        "ÐµÐ¹"
      ],
      [
        "ĠÐ¸",
        "Ñģ"
      ],
      [
        "ĠÐĲÐ»ÐµÐº",
        "Ñģ"
      ],
      [
        "ĠÑģÑĤ",
        "ÑĢÐ°Ð½"
      ],
      [
        "!",
        "\""
      ],
      [
        "Ñĭ",
        "ÑĢ"
      ],
      [
        "ĠÐ¼",
        "Ð°ÑĤ"
      ],
      [
        "ĠÑĢÐ°Ð·",
        "Ð²"
      ],
      [
        "ĠÐ²",
        "Ð¼"
      ],
      [
        "Ð¿",
        "ÑĢ"
      ],
      [
        "Ð´Ðµ",
        "ÑģÑĮ"
      ],
      [
        "ĠÑĩÐµÑĢ",
        "ÐµÐ·"
      ],
      [
        "ĠÐ°",
        "ÑĢ"
      ],
      [
        "ĠÐ¼",
        "Ð½Ð¾Ð³Ð¾"
      ],
      [
        "ĠÐ±",
        "ÑĢÐ°ÑĤ"
      ],
      [
        "ĠÐ¾",
        "Ð¶"
      ],
      [
        "Ð¸",
        "ÐµÐ¼"
      ],
      [
        "Ñĩ",
        "Ð¸Ð²"
      ],
      [
        "Ð²",
        "Ð¾"
      ],
      [
        "ÑĨ",
        "Ñĭ"
      ],
      [
        "ÐµÐ¹",
        "ÑĩÐ°Ñģ"
      ],
      [
        "ĠÐŀ",
        "ÑĤ"
      ],
      [
        "ĠÐ¿Ð¾Ñĩ",
        "ÑĤÐ¸"
      ],
      [
        "Ð°Ð´",
        "ÑĨ"
      ],
      [
        "ĠÐ¿Ð¾Ð»",
        "Ð¾Ð¶"
      ],
      [
        "ĠÑĥ",
        "ÑĤ"
      ],
      [
        "ĠÐ´",
        "Ð¾Ð±ÑĢ"
      ],
      [
        "ĠÐ¸",
        "Ð³"
      ],
      [
        "Ð½Ñı",
        "Ð»"
      ],
      [
        "ĠÐµ",
        "Ð´"
      ],
      [
        "Ð¾Ð¶",
        "Ð´"
      ],
      [
        "Ðº",
        "Ð°Ñı"
      ],
      [
        "Ñĩ",
        "Ðµ"
      ],
      [
        "ĠÐļÐ»",
        "Ð¸Ð¼"
      ],
      [
        "ĠÑĥ",
        "ÑģÐ¿"
      ],
      [
        "Ġ",
        "ÑĤÐ¾ÑĢ"
      ],
      [
        "ĠÐ²Ñĭ",
        "Ð¿"
      ],
      [
        "Ð¼",
        "Ðµ"
      ],
      [
        "ĠÐ¶Ð¸Ð·",
        "Ð½Ð¸"
      ],
      [
        "Ð¾Ð¹",
        "Ð´"
      ],
      [
        "Ð°",
        "ÐµÐ¼"
      ],
      [
        "ĠÑħ",
        "Ð¾Ð´"
      ],
      [
        "ĠÑģÐº",
        "Ð¾ÑĢ"
      ],
      [
        "ĠÐ»ÑİÐ´",
        "Ð¸"
      ],
      [
        "ĠÐ²",
        "Ð¾ÑĢ"
      ],
      [
        "Ñİ",
        "Ð±"
      ],
      [
        "ĠÑĤÐ¾",
        "ÑĩÐ½Ð¾"
      ],
      [
        "ĠÐ¿ÑĢ",
        "Ð¾ÑĪ"
      ],
      [
        "ĠÐ·",
        "Ð°Ð½"
      ],
      [
        "ÑģÑĤÐ²",
        "ÐµÐ½Ð½Ð¾"
      ],
      [
        "ĠÐ´Ð²",
        "Ð°"
      ],
      [
        "ÐµÐº",
        "Ð¾"
      ],
      [
        "Ð¾ÑĪ",
        "Ð°Ð´"
      ],
      [
        "Ð¾Ð·",
        "Ñı"
      ],
      [
        "ÑĥÑĪ",
        "ÐºÐ°"
      ],
      [
        "ĠÐ´",
        "ÐµÑĤ"
      ],
      [
        "ĠÑģÐ¾Ð²",
        "ÑģÐµÐ¼"
      ],
      [
        "ĠÐºÑĢ",
        "Ð¸Ðº"
      ],
      [
        "ĠÐ²",
        "Ð¾Ð´"
      ],
      [
        "ĠÐ¾Ð±",
        "ÑĬ"
      ],
      [
        "ĠÐ¿ÑĢ",
        "ÐµÐ¶"
      ],
      [
        "ĠÐ¿ÑĢ",
        "Ð¸Ð´"
      ],
      [
        "ÐµÐ½",
        "ÑĤ"
      ],
      [
        "ÐµÐ²",
        "Ð¸Ñĩ"
      ],
      [
        "ĠÐ²",
        "ÑģÐº"
      ],
      [
        "ĠÐ´ÑĢÑĥÐ³",
        "Ð¾Ð¹"
      ],
      [
        "ĠÐ²",
        "ÐµÑģÑĮ"
      ],
      [
        "ĠÐ¿Ð¾",
        "Ñħ"
      ],
      [
        "ĠÐ¿ÑĢ",
        "Ð¾ÑģÑĤ"
      ],
      [
        "ĠÑĥÐ´",
        "Ð¸Ð²"
      ],
      [
        "ĠÐ²Ð¾Ð¿",
        "ÑĢÐ¾Ñģ"
      ],
      [
        "ÐµÐ¹",
        "ÑģÑĤÐ²"
      ],
      [
        "ĠÐł",
        "Ð°Ð·"
      ],
      [
        "ĠÐº",
        "Ð°Ð¶Ð´"
      ],
      [
        "ĠÐ¿ÑĢ",
        "Ð¸ÑĪ"
      ],
      [
        "ĠÐ¼Ð¾Ð¶",
        "Ð½Ð¾"
      ],
      [
        "Ðº",
        "Ð¸Ðµ"
      ],
      [
        "Ñı",
        "Ð³"
      ],
      [
        "ĠÐ¿ÑĢ",
        "Ð¾Ð³"
      ],
      [
        "ÑĤÐ¾",
        "Ñĩ"
      ],
      [
        "ĠÑģÐº",
        "Ð°Ð¶"
      ],
      [
        "ÑĨ",
        "ÐµÐ²"
      ],
      [
        "ĠÐ¶",
        "Ð°Ð»"
      ],
      [
        "ĠÐ¾ÑĤ",
        "Ð´"
      ],
      [
        "Ñĥ",
        "ÑĤÑĮ"
      ],
      [
        "Ð¾Ð²Ð¾ÑĢ",
        "Ð¸Ð»"
      ],
      [
        "ÐµÑģÑĤ",
        "ÑĮ"
      ],
      [
        "ĠÐĴ",
        "Ð°ÑĢ"
      ],
      [
        "ĠÐ±Ñĭ",
        "Ð²"
      ],
      [
        "ĠÐ¾ÑģÑĤ",
        "Ð°Ð½Ð¾Ð²"
      ],
      [
        "ÑĢ",
        "ÑĥÐ¶"
      ],
      [
        "Ñ",
        "į"
      ],
      [
        "ĠÐ",
        "ĸ"
      ],
      [
        "ĠÐ¼",
        "ÐµÐ¶Ð´Ñĥ"
      ],
      [
        "ĠÐ¿ÑĢÐ¾ÑĤ",
        "Ð¸Ð²"
      ],
      [
        "ĠÐ²Ð·",
        "Ð´"
      ],
      [
        "ĠÑģÐ²Ð¾",
        "ÐµÐ³Ð¾"
      ],
      [
        "ÐµÑĢ",
        "Ð²"
      ],
      [
        "Ð¾",
        "ÑĤÑĮ"
      ],
      [
        "ÑĢÐ°Ð½",
        "ÑĨ"
      ],
      [
        "Ð¾Ð²",
        "Ð°ÑĤÑĮ"
      ],
      [
        "ĠÑĤ",
        "ÑıÐ¶"
      ],
      [
        "ĠÑįÑĤ",
        "Ð¾Ð¹"
      ],
      [
        "Ð»",
        "Ð¸Ðº"
      ],
      [
        "Ñĥ",
        "ÐµÑĤ"
      ],
      [
        "ĠÐ¿Ð»",
        "ÐµÑĩ"
      ],
      [
        "ĠÑĪ",
        "Ð°Ð³"
      ],
      [
        "Ñħ",
        "Ð²Ð°ÑĤ"
      ],
      [
        "ĠÐ´ÐµÑĢ",
        "ÐµÐ²"
      ],
      [
        "Ð»",
        "Ð¸Ð½"
      ],
      [
        "Ð»",
        "ÐµÐ½Ð½Ð¾"
      ],
      [
        "ĠÑģÐ»",
        "ÑĥÑĪ"
      ],
      [
        "Ð",
        "Ĵ"
      ],
      [
        "ĠÑĥÐ¶",
        "Ð°Ñģ"
      ],
      [
        "ĠÐ´Ð²",
        "Ð¾ÑĢ"
      ],
      [
        "Ð¾Ð½",
        "Ð¾Ð²"
      ],
      [
        "Ð»",
        "ÑĮ"
      ],
      [
        "Ð¶",
        "Ðµ"
      ],
      [
        "ĠÐ½",
        "ÐµÐ¼Ñĥ"
      ],
      [
        "Ð¾Ð¶",
        "Ð½Ð¾"
      ],
      [
        "ĠÐ´",
        "Ð¾ÑģÑĤ"
      ],
      [
        "Ð¼",
        "Ð°"
      ],
      [
        "ĠÐ»",
        "Ð¾ÑĪÐ°Ð´"
      ],
      [
        "ĠÐ±",
        "Ð¾ÑĢ"
      ],
      [
        "ĠÐĲ",
        "ÑĢ"
      ],
      [
        "ĠÐ¿ÑĢÐ¾",
        "Ð¸Ð·"
      ],
      [
        "ĠÐŀ",
        "Ð´"
      ],
      [
        "ĠÐ´",
        "Ð¾Ðº"
      ],
      [
        "ĠÐ·",
        "Ð´ÐµÑģÑĮ"
      ],
      [
        "ĠÐ²Ñģ",
        "ÐµÐ³Ð¾"
      ],
      [
        "Ñı",
        "Ð»Ð°"
      ],
      [
        "ĠÑħÐ¾ÑĢÐ¾ÑĪ",
        "Ð¾"
      ],
      [
        "ĠÐ¿",
        "Ð°Ð»ÑĮ"
      ],
      [
        "ÑıÐ»",
        "ÑģÑı"
      ],
      [
        "ĠÐ¿ÑĢ",
        "Ð¾Ð²"
      ],
      [
        "ĠÑģ",
        "ÐµÐ¹ÑĩÐ°Ñģ"
      ],
      [
        "ĠÐ³Ð¾ÑĢ",
        "Ð¾Ð´"
      ],
      [
        "ÐµÐ½",
        "Ð½ÑĭÐµ"
      ],
      [
        "Ð¾Ð²",
        "Ð°Ð½"
      ],
      [
        "ĠÐ³Ð¾Ð²Ð¾ÑĢ",
        "Ð¸ÑĤÑĮ"
      ],
      [
        "ÐµÐ½",
        "Ñĭ"
      ],
      [
        "Ð°Ð",
        "³Ð¾"
      ],
      [
        "ĠÑĤ",
        "Ð¾Ð½"
      ],
      [
        "Ðº",
        "Ð²"
      ],
      [
        "ĠÐ¿Ð¾",
        "ÑģÑĤ"
      ],
      [
        "ÑĦ",
        "Ð¸ÑĨ"
      ],
      [
        "ĠÐ¿Ð¾Ðº",
        "Ð°Ð·"
      ],
      [
        "ĠÑĥ",
        "Ñĩ"
      ],
      [
        "Ð½Ð¸Ðº",
        "Ð°"
      ],
      [
        "ĠÐĿ",
        "Ð°ÑĤ"
      ],
      [
        "ĠÐºÐ½ÑıÐ·",
        "ÑĮ"
      ],
      [
        "ĠÑģ",
        "Ð¸Ð»"
      ],
      [
        "ĠÐ½Ð¸Ðº",
        "Ð¾Ð³Ð´Ð°"
      ],
      [
        "ÐµÑĢ",
        "Ð³"
      ],
      [
        "ÐµÑģÑĤ",
        "Ð¸"
      ],
      [
        "ĠÐ³Ð»Ð°Ð·",
        "Ð°Ð¼Ð¸"
      ],
      [
        "ĠÐ¶Ð¸Ð·",
        "Ð½ÑĮ"
      ],
      [
        "ÐµÑĩ",
        "Ð½Ð¾"
      ],
      [
        "ĠÐĺÐ²",
        "Ð°Ð½"
      ],
      [
        "ÑĮ",
        "Ðµ"
      ],
      [
        "ĠÑĤÐ°Ðº",
        "Ð¾Ð¹"
      ],
      [
        "ÑĢ",
        "Ð¸Ñĩ"
      ],
      [
        "ĠÐ¼Ð°Ð»",
        "ÐµÐ½ÑĮ"
      ],
      [
        "Ð·",
        "Ñı"
      ],
      [
        "ĠÐ»",
        "ÐµÐ¶"
      ],
      [
        "ĠÑįÑĤ",
        "Ñĥ"
      ],
      [
        "Ð¼",
        "Ð°Ð½"
      ],
      [
        "ĠÐ³Ð¾Ð²Ð¾ÑĢ",
        "Ð¸ÑĤ"
      ],
      [
        "ĠÑħÐ¾ÑĤ",
        "Ñı"
      ],
      [
        "ĠÑħ",
        "Ð¾Ð·Ñı"
      ],
      [
        "ĠÑĩÐµÐ»Ð¾Ð²ÐµÐº",
        "Ð°"
      ],
      [
        "ĠÐ±",
        "ÑĢÐ¾Ñģ"
      ],
      [
        "ÐµÐ²",
        "ÑĪ"
      ],
      [
        "Ð½Ð¸Ðº",
        "Ð¾Ð²"
      ],
      [
        "ÐµÑĤ",
        "Ð°"
      ],
      [
        "ĠÐ¼",
        "Ð½"
      ],
      [
        "ĠÐŁ",
        "ÑĮ"
      ],
      [
        "ĠÐŁ",
        "Ð¾"
      ],
      [
        "ĠÑģÐ²Ð¾",
        "Ð¸"
      ],
      [
        "Ð½",
        "Ð¸Ð¹"
      ],
      [
        "ĠÐ¼Ð¸Ð½ÑĥÑĤ",
        "Ñĥ"
      ],
      [
        "ĠÐ¼",
        "ÐµÐ´"
      ],
      [
        "ÐµÐ¶",
        "Ð´"
      ],
      [
        "Ð½",
        "Ð¸Ðµ"
      ],
      [
        "Ð¸Ð½",
        "Ð¾Ð¹"
      ],
      [
        "ĠÐ·",
        "Ð»"
      ],
      [
        "ÑĥÐ¶",
        "Ð´"
      ],
      [
        "ĠÑģ",
        "Ð°Ð´"
      ],
      [
        "ĠÐ´ÑĥÐ¼",
        "Ð°Ð»"
      ],
      [
        "Ð",
        "Ĳ"
      ],
      [
        "ÐµÐ³",
        "Ð¾Ð´"
      ],
      [
        "Ð°ÑĪ",
        "Ð°"
      ],
      [
        "Ð»",
        "ÐµÐ´"
      ],
      [
        "ĠÐ¼Ð¾Ð»",
        "Ñĩ"
      ],
      [
        "ÑĭÐ²",
        "Ð°Ñı"
      ],
      [
        "ĠÐ³Ð¾",
        "ÑģÑĤ"
      ],
      [
        "ĠÐ¿Ð¾",
        "ÑĪ"
      ],
      [
        "ĠÑĢÐ°Ð·Ð³",
        "Ð¾Ð²Ð¾ÑĢ"
      ],
      [
        "ĠÐ¼Ð¾Ð³",
        "Ñĥ"
      ],
      [
        "Ð»",
        "ÑĥÑĪ"
      ],
      [
        "ĠÐ²Ð¸Ð´",
        "ÐµÐ»"
      ],
      [
        "Ð°ÐµÑĤ",
        "Ðµ"
      ],
      [
        "ÐµÐ½",
        "Ð½Ð¾Ð¹"
      ],
      [
        "ĠÐ½Ðµ",
        "Ð¾Ð±"
      ],
      [
        "ĠÑĢÐ°Ð±",
        "Ð¾ÑĤ"
      ],
      [
        "ĠÐŁ",
        "Ð¾Ð´"
      ],
      [
        "ĠÐ±ÐµÑģ",
        "Ð¿"
      ],
      [
        "ĠÐº",
        "Ð½"
      ],
      [
        "Ð²",
        "Ð¾Ð»"
      ],
      [
        "ÐµÐ·",
        "Ð¶"
      ],
      [
        "ÑģÑĤ",
        "Ð°Ð»"
      ],
      [
        "ĠÐ³",
        "ÑĢÐ°ÑĦ"
      ],
      [
        "Ð°",
        "ÐµÑĪÑĮ"
      ],
      [
        "ĠÐ¾ÑĤ",
        "Ð¿"
      ],
      [
        "?",
        "\""
      ],
      [
        "ĠÐĺ",
        "Ð·"
      ],
      [
        "ĠÐ´Ð²",
        "ÐµÑĢÑĮ"
      ],
      [
        "ĠÑģÐ²Ð¾",
        "Ðµ"
      ],
      [
        "ĠÐŁ",
        "Ð°Ð²"
      ],
      [
        "Ðµ",
        "Ñı"
      ],
      [
        "ÐµÐ½",
        "Ð¾"
      ],
      [
        "ĠÐĵÑĢÐ¸Ð³Ð¾ÑĢ",
        "Ð¸Ð¹"
      ],
      [
        "Ð½",
        "Ð¸Ñĩ"
      ],
      [
        "ÐµÐ½Ð¸",
        "Ñİ"
      ],
      [
        "ĠÐ·",
        "Ð°ÑĢ"
      ],
      [
        "ĠÑĤÐ¾ÑĤ",
        "ÑĩÐ°Ñģ"
      ],
      [
        "Ð¾Ð½",
        "Ð°"
      ],
      [
        "Ðº",
        "Ð¸Ð¼"
      ],
      [
        "ÐµÐ»ÑĮ",
        "Ð·Ñı"
      ],
      [
        "ĠÑı",
        "Ð²"
      ],
      [
        "Ð°Ð¶",
        "ÐµÑĤÑģÑı"
      ],
      [
        "ÑĭÐ²",
        "Ð°Ð»"
      ],
      [
        "ĠÑģ",
        "Ð¾Ð³"
      ],
      [
        "Ñı",
        "Ñħ"
      ],
      [
        "Ð°ÑĤ",
        "ÑĢ"
      ],
      [
        "ĠÐ³Ð¾ÑģÐ¿",
        "Ð¾Ð´"
      ],
      [
        "Ð¾ÑĤ",
        "Ð¾Ð¼"
      ],
      [
        "ĠÑģÑĤ",
        "ÑĢÐ°"
      ],
      [
        "ĠÐ²ÐµÑĩ",
        "ÐµÑĢ"
      ],
      [
        "ĠÐ¿ÑĢÐµÐ´",
        "ÑģÑĤÐ°Ð²"
      ],
      [
        "Ñİ",
        "Ñī"
      ],
      [
        "ĠÑĩ",
        "ÐµÑĤ"
      ],
      [
        "ĠÐ¼",
        "Ð°ÑĤÑĮ"
      ],
      [
        "Ð½",
        "Ð°Ðº"
      ],
      [
        "ĠÑģ",
        "ÐµÐ¼"
      ],
      [
        "ĠÐ²Ð¾Ñģ",
        "Ðº"
      ],
      [
        "ĠÐ¿Ð¾Ð¶",
        "Ð°Ð»"
      ],
      [
        "ĠÐºÐ°Ð·",
        "Ð°Ð»Ð¾ÑģÑĮ"
      ],
      [
        "ÐµÐ·",
        "Ð´"
      ],
      [
        "ĠÑĥ",
        "Ð»Ð¸"
      ],
      [
        "ĠÐ±",
        "Ð¾"
      ],
      [
        "ĠÐ»ÑĥÑĩ",
        "ÑĪÐµ"
      ],
      [
        "Ð¸Ð²",
        "Ð°ÑĤÑĮ"
      ],
      [
        "ĠÐ²",
        "Ð¾Ð¹"
      ],
      [
        "ĠÐ´",
        "ÐµÑĢÐ¶"
      ],
      [
        "Ð",
        "Ł"
      ],
      [
        "ĠÑģÐ¾Ð²ÐµÑĢÑĪ",
        "ÐµÐ½Ð½Ð¾"
      ],
      [
        "ĠÐ¿Ð¾Ñģ",
        "Ð¼Ð¾ÑĤÑĢ"
      ],
      [
        "Ð»Ñİ",
        "Ð´"
      ],
      [
        "ĠÐ¿",
        "Ð¸ÑģÑĮ"
      ],
      [
        "ĠÑģÑĤ",
        "ÑĢÐ°ÑĪ"
      ],
      [
        "ĠÐ²Ð·Ð³",
        "Ð»Ñı"
      ],
      [
        "ĠÐ½Ð°Ñĩ",
        "Ð°Ð»"
      ],
      [
        "ĠÑģÐ»",
        "ÐµÐ·"
      ],
      [
        "ĠÐ±Ð»",
        "Ð°Ð³"
      ],
      [
        "ĠÑħ",
        "Ð»"
      ],
      [
        "ĠÑģ",
        "Ð¸Ð»ÑĮ"
      ],
      [
        "ÑĨ",
        "Ñĥ"
      ],
      [
        "ĠÐ¿ÑĢ",
        "ÑıÐ¼"
      ],
      [
        "ĠÐ¤",
        "ÐµÐ´"
      ],
      [
        "Ð»",
        "ÐµÑĤ"
      ],
      [
        "ĠÐ±",
        "ÐµÐ´"
      ],
      [
        "âĢ",
        "Ķ"
      ],
      [
        "ÐµÑģ",
        "ÑĤÐ¾"
      ],
      [
        "ÑĢ",
        "Ð¾"
      ],
      [
        "ĠÐ´",
        "ÐµÐ¹ÑģÑĤÐ²"
      ],
      [
        "ĠÐ²",
        "Ð½"
      ],
      [
        "Ð»Ñı",
        "Ð»"
      ],
      [
        "ÑģÐº",
        "Ð¸Ñħ"
      ],
      [
        "ĠÐ½Ð°Ðº",
        "Ð¾Ð½ÐµÑĨ"
      ],
      [
        "ÐµÐ½",
        "ÐµÑĢ"
      ],
      [
        "ĠÐļ",
        "Ð¾Ð³Ð´Ð°"
      ],
      [
        "Ð¸Ðº",
        "Ð°"
      ],
      [
        "ĠÐ´",
        "Ð¾Ñģ"
      ],
      [
        "Ð»",
        "Ð¾Ð¶"
      ],
      [
        "ĠÐ¾Ð±",
        "ÑĢÐ°ÑĤ"
      ],
      [
        "ÐµÐ½",
        "Ð¸Ð¹"
      ],
      [
        "ĠÐ±Ñĭ",
        "ÑģÑĤÑĢÐ¾"
      ],
      [
        "ĠÐ´",
        "Ð°Ð²"
      ],
      [
        "ĠÑģÑĤ",
        "Ð°Ð½"
      ],
      [
        "ĠÐ¿ÑĢ",
        "Ð¸Ñħ"
      ],
      [
        "ĠÐ¿Ð¾Ð»",
        "ÑĥÑĩ"
      ],
      [
        "ĠÐ¿ÑĢ",
        "Ð¸ÑıÑĤ"
      ],
      [
        "ĠÑĤÐ¸Ñħ",
        "Ð¾"
      ],
      [
        "Ð»",
        "ÐµÐ½Ð¸Ðµ"
      ],
      [
        "Ð¼",
        "Ð¾"
      ],
      [
        "ĠÐº",
        "ÑĥÐ´Ð°"
      ],
      [
        "Ð°ÑĤÐµÐ»ÑĮ",
        "Ð½Ð¾"
      ],
      [
        "ÑĢ",
        "ÐµÐ·"
      ],
      [
        "ÑĢ",
        "Ð°Ð´"
      ],
      [
        "ĠÑĢ",
        "ÑĥÐ±"
      ],
      [
        "ÐµÐ²",
        "Ð½Ð°"
      ],
      [
        "Ð½ÑĥÐ»",
        "Ð°ÑģÑĮ"
      ],
      [
        "ĠÐŀÐ½",
        "Ð¸"
      ],
      [
        "ĠÐľ",
        "Ñĭ"
      ],
      [
        "ĠÑĤÐ°Ðº",
        "Ð¾Ðµ"
      ],
      [
        "Ð¾Ð±ÑĢ",
        "Ð°Ð·"
      ],
      [
        "ĠÐ´Ð¾Ð¼",
        "Ð°"
      ],
      [
        "ĠÐ½Ð¸Ðº",
        "Ð°Ðº"
      ],
      [
        "ĠÐ½",
        "Ð¾Ñģ"
      ],
      [
        "ĠÐ¿ÑĢ",
        "Ð¾Ñĩ"
      ],
      [
        "ĠÐ³",
        "Ð¾Ð´"
      ],
      [
        "ĠÐŁ",
        "Ð¾Ñģ"
      ],
      [
        "ÐµÐ²",
        "Ð°"
      ],
      [
        "ĠÐĴ",
        "Ð°Ñģ"
      ],
      [
        "Ñĥ",
        "ÑīÐµ"
      ],
      [
        "Ð½Ð°",
        "Ñĩ"
      ],
      [
        "ĠÐ¿ÑĢ",
        "Ð¾Ð±"
      ],
      [
        "Ð½Ñĥ",
        "ÑĤ"
      ],
      [
        "ĠÐ¾ÑģÐ¾Ð±",
        "ÐµÐ½Ð½Ð¾"
      ],
      [
        "ĠÐ·Ð½",
        "Ð°Ð»"
      ],
      [
        "ĠÐ¾",
        "ÑĦÐ¸ÑĨ"
      ],
      [
        "ĠÐ²Ñģ",
        "Ñİ"
      ],
      [
        "Ð°ÑĢ",
        "ÑĮ"
      ],
      [
        "ĠÐ³ÑĢ",
        "Ð¾Ð¼"
      ],
      [
        "ĠÐ¿ÑĢ",
        "Ð¸Ð·"
      ],
      [
        "ĠÑģÐ²",
        "Ð¾Ð¹"
      ],
      [
        "ĠÐ¾Ð´",
        "Ð½Ð¾"
      ],
      [
        "Ð¸",
        "ÑģÐº"
      ],
      [
        "ĠÐ²Ð¼",
        "ÐµÑģÑĤÐµ"
      ],
      [
        "ĠÐ²Ð·Ð³",
        "Ð»ÑıÐ´"
      ],
      [
        "ĠÐ´",
        "Ð°Ð»"
      ],
      [
        "ÐµÐ½",
        "Ð½ÑĭÑħ"
      ],
      [
        "ĠÐ¾Ð±",
        "ÑĢÐ°Ð·"
      ],
      [
        "ĠÐºÑĢ",
        "Ð¾Ð²"
      ],
      [
        "ĠÐ´Ð¾Ð»",
        "Ð³Ð¾"
      ],
      [
        "ĠÐº",
        "ÑĥÑĢ"
      ],
      [
        "ĠÐ·",
        "Ð´"
      ],
      [
        "Ñĭ",
        "Ð½"
      ],
      [
        "ÐµÐ½",
        "Ð½ÑĭÐ¼"
      ],
      [
        "ĠÐ¾ÑĤ",
        "Ñĩ"
      ],
      [
        "ĠÐ·Ð½",
        "Ð°ÐºÐ¾Ð¼"
      ],
      [
        "Ð¸Ðº",
        "Ð¸"
      ],
      [
        "ÑģÐº",
        "Ð¸Ðµ"
      ],
      [
        "Ð¾Ð²",
        "Ð¸Ñĩ"
      ],
      [
        "ĠÑģ",
        "ÑĥÐ´"
      ],
      [
        "ĠÐ¼",
        "ÐµÑģÑĤ"
      ],
      [
        "ĠÐ¿",
        "ÑıÑĤ"
      ],
      [
        "ĠÑģÐ½",
        "Ð¾Ð²Ð°"
      ],
      [
        "ĠÑįÑĤ",
        "Ð°"
      ],
      [
        "ĠÑģÐ²Ð¾",
        "Ð¸Ñħ"
      ],
      [
        "ĠÑģÐ»",
        "ÑĥÐ¶"
      ],
      [
        "ĠÐ¼",
        "Ð¾ÑĢ"
      ],
      [
        "Ð½",
        "ÐµÐ¼"
      ],
      [
        "ÑĤ",
        "Ð°ÐºÐ¸"
      ],
      [
        "ÑĪ",
        "Ð¸ÑģÑĮ"
      ],
      [
        "ĠÐ¼Ñĭ",
        "ÑģÐ»"
      ],
      [
        "Ð¾Ð½",
        "ÑĮ"
      ],
      [
        "ĠÑĤÑĢ",
        "Ð¸"
      ],
      [
        "ĠÑħ",
        "Ð¾Ð»Ð¾Ð´"
      ],
      [
        "Ð¾Ð²",
        "Ð¾Ð¹"
      ],
      [
        "ÑĥÑİ",
        "Ñī"
      ],
      [
        "Ð»",
        "ÐµÐ½Ð¸Ñı"
      ],
      [
        "ĠÐ²Ñĭ",
        "ÑĢÐ°Ð¶"
      ],
      [
        "Ñı",
        "Ñĩ"
      ],
      [
        "ĠÐ¿ÑĢÐ¾Ñģ",
        "ÑĤÐ¾"
      ],
      [
        "Ð»Ñİ",
        "Ñĩ"
      ],
      [
        "ĠÑĩ",
        "Ð¸ÑĤ"
      ],
      [
        "Ð",
        "Ķ"
      ],
      [
        "ĠÐ½",
        "ÐµÐ»ÑĮÐ·Ñı"
      ],
      [
        "ĠÑģÐ²Ð¾",
        "Ð¸Ð¼"
      ],
      [
        "ĠÑģÐ¿",
        "Ð¾ÐºÐ¾Ð¹"
      ],
      [
        "Ñı",
        "Ð¼Ð¸"
      ],
      [
        "Ð¾Ð±",
        "Ð½Ð¾"
      ],
      [
        "Ð²",
        "Ð°"
      ],
      [
        "ÐµÐ½",
        "Ð½Ð¾Ð³Ð¾"
      ],
      [
        "ĠÐ±",
        "ÐµÑĢ"
      ],
      [
        "ĠÐºÐ¾ÑĤÐ¾ÑĢ",
        "Ð¾Ð¹"
      ],
      [
        "ĠÐ¿Ð¾Ð²",
        "ÑĤÐ¾ÑĢ"
      ],
      [
        "ĠÑĢÐ°Ð·",
        "Ð´"
      ],
      [
        "ĠÐ²",
        "Ð½Ð¸Ð¼"
      ],
      [
        "ĠÐ±",
        "Ð°Ð±"
      ],
      [
        "Ð½Ð¾",
        "Ñģ"
      ],
      [
        "ĠÐ·",
        "Ð°Ð»"
      ],
      [
        "Ñİ",
        "ÑĪ"
      ],
      [
        "ĠÑĪ",
        "Ð¸ÑĢ"
      ],
      [
        "ĠÑĤÑĢ",
        "ÑĥÐ´"
      ],
      [
        "ĠÐ¼Ð¾",
        "Ñı"
      ],
      [
        "ĠÑĤ",
        "Ðµ"
      ],
      [
        "ĠÐľ",
        "Ð¸Ñħ"
      ],
      [
        "Ð¸Ðº",
        "Ð¾Ð²"
      ],
      [
        "ĠÐ¿ÑĢ",
        "Ð¸Ð¿"
      ],
      [
        "ĠÐ¡ÑĤ",
        "ÐµÐ¿"
      ],
      [
        "ĠÐ¾ÑĤÐ²ÐµÑĤ",
        "Ð¸Ð»"
      ],
      [
        "ĠÑĤ",
        "Ð¾Ð¼Ñĥ"
      ],
      [
        "ÑĥÐ»",
        "ÑĮ"
      ],
      [
        "Ð´",
        "Ð°ÑĤ"
      ],
      [
        "ĠÐ¿Ð¾Ð²",
        "ÐµÑĢ"
      ],
      [
        "ĠÑĥ",
        "ÑģÐ»"
      ],
      [
        "ĠÑĢÑĥ",
        "Ñģ"
      ],
      [
        "ĠÐŁÑĮ",
        "ÐµÑĢ"
      ],
      [
        "ĠÐĶ",
        "Ð°Ð²"
      ],
      [
        "ĠÐĹ",
        "Ð°"
      ],
      [
        "ĠÑĨ",
        "ÐµÐ»"
      ],
      [
        "Ð°Ðº",
        "Ð¾Ð²"
      ],
      [
        "ÑģÑĤÐ²",
        "Ð¾Ð¼"
      ],
      [
        "ĠÐ¿Ð¾Ð´ÑĥÐ¼",
        "Ð°Ð»"
      ],
      [
        "ĠÐ¿ÑĢ",
        "ÐµÐº"
      ],
      [
        "ĠÐ½ÑĥÐ¶",
        "Ð½Ð¾"
      ],
      [
        "ĠÐ½Ðµ",
        "Ñĩ"
      ],
      [
        "ĠÑģ",
        "ÑĢÐµÐ´"
      ],
      [
        "ÐµÑĢ",
        "Ð¿"
      ],
      [
        "ÐµÑĢ",
        "Ð´"
      ],
      [
        "Ð½Ð°Ðº",
        "Ð¾"
      ],
      [
        "ĠÐ²Ð¿",
        "ÐµÑĢÐµÐ´"
      ],
      [
        "ĠÐ²Ð¾Ð»",
        "Ð¾Ñģ"
      ],
      [
        "Ð³",
        "Ð¸"
      ],
      [
        "Ñı",
        "Ð»Ð¸"
      ],
      [
        "ĠÐĽ",
        "ÐµÐ²"
      ],
      [
        "Ð¼",
        "Ñĭ"
      ],
      [
        "ÑĭÐº",
        "Ð½Ð¾Ð²"
      ],
      [
        "ĠÐºÐ¾ÑĤÐ¾ÑĢ",
        "Ð°Ñı"
      ],
      [
        "ÑģÑĤ",
        "Ð°"
      ],
      [
        "ĠÑģÐ¿",
        "ÑĢÐ°ÑĪ"
      ],
      [
        "ĠÐ¡",
        "Ðº"
      ],
      [
        "ĠÐľ",
        "Ð½Ðµ"
      ],
      [
        "ĠÐ¶",
        "Ð´"
      ],
      [
        "ĠÑģÑĤ",
        "Ð°Ð»Ð¾"
      ],
      [
        "ĠÐºÐ¾ÑĤÐ¾ÑĢ",
        "Ð¾Ð³Ð¾"
      ],
      [
        "ĠÐºÑĢ",
        "Ð¸Ñĩ"
      ],
      [
        "Ð»Ð¸",
        "Ñĩ"
      ],
      [
        "ĠÐº",
        "Ð°Ð¼"
      ],
      [
        "ĠÐ¸Ð³",
        "ÑĢ"
      ],
      [
        "ĠÐ³Ð¾Ð»Ð¾Ñģ",
        "Ð¾Ð¼"
      ],
      [
        "ĠÐ³Ð¾Ð²Ð¾ÑĢ",
        "Ð¸Ð»Ð°"
      ],
      [
        "Ð¾Ð´",
        "ÑĥÑĪ"
      ],
      [
        "Ð°ÑĢ",
        "Ð¾Ð²"
      ],
      [
        "ĠÑģÑĤÐ¾",
        "ÑıÐ»"
      ],
      [
        "ĠÑı",
        "Ñģ"
      ],
      [
        "Ðº",
        "Ð¸Ñħ"
      ],
      [
        "ĠÑģÐµÑĢÐ´",
        "ÑĨÐµ"
      ],
      [
        "ĠÐº",
        "Ð°Ð¶ÐµÑĤÑģÑı"
      ],
      [
        "ĠÐ¿ÑĢ",
        "Ð¾Ðº"
      ],
      [
        "ĠÐ³Ð»",
        "ÑĥÐ¿"
      ],
      [
        "ÐµÐ½ÑĮ",
        "ÐºÐ°"
      ],
      [
        "ĠÐŀ",
        "Ð±"
      ],
      [
        "ĠÐ¾Ð¶",
        "Ð¸Ð´"
      ],
      [
        "ĠÐ¾ÑĤ",
        "ÐµÑĨ"
      ],
      [
        "ĠÑħ",
        "Ð¾ÑĤÑĮ"
      ],
      [
        "Ð°",
        "Ð½Ð¾"
      ],
      [
        "ĠÐ¿",
        "ÑĥÑģÑĤ"
      ],
      [
        "Ð¾Ð»",
        "Ñĩ"
      ],
      [
        "Ñĭ",
        "Ð¿"
      ],
      [
        "ĠÐ¿Ð¾",
        "ÑĪÐµÐ»"
      ],
      [
        "ĠÐŁÐµÑĤ",
        "ÑĢÐ¾Ð²"
      ],
      [
        "ÐµÐ½Ð½Ð¾",
        "Ðµ"
      ],
      [
        "ĠÑģ",
        "Ð±"
      ],
      [
        "ĠÑĢ",
        "ÑıÐ´"
      ],
      [
        "Ð°Ð½",
        "Ð½Ð¾"
      ],
      [
        "ĠÑĥ",
        "Ð²ÐµÑĢ"
      ],
      [
        "ĠÐ½Ð°",
        "ÑħÐ¾Ð´"
      ],
      [
        "Ð²",
        "Ð°Ð»"
      ],
      [
        "ÑĤÐµÑĢ",
        "ÐµÑģ"
      ],
      [
        "ĠÐĺÐ²Ð°Ð½Ð¾Ð²",
        "Ð¸Ñĩ"
      ],
      [
        "Ð",
        "ļ"
      ],
      [
        "ĠÐ¾ÑĤ",
        "ÑĤ"
      ],
      [
        "ĠÐºÑĢ",
        "ÑĥÐ³"
      ],
      [
        "ĠÐ¿ÑĢÐ¾Ð´Ð¾Ð»Ð¶",
        "Ð°Ð»"
      ],
      [
        "Ð»Ð¸",
        "ÑĪ"
      ],
      [
        "ĠÑĢÐ°Ð·",
        "Ð±"
      ],
      [
        "ĠÑħ",
        "ÑĢ"
      ],
      [
        "ĠÐ²",
        "ÐµÑĤ"
      ],
      [
        "ĠÐ¾ÑĤÐº",
        "ÑĢÑĭ"
      ],
      [
        "ÑĢÐ°Ð½ÑĨ",
        "ÑĥÐ·"
      ],
      [
        "Ð½",
        "ÐµÐ²"
      ],
      [
        "ĠÐ²Ñĭ",
        "ÑħÐ¾Ð´"
      ],
      [
        "ĠÑįÑĤ",
        "Ð¸Ñħ"
      ],
      [
        "ÑĢ",
        "Ð¾Ñĩ"
      ],
      [
        "Ð²ÐµÑĢ",
        "Ð´"
      ],
      [
        "Ð½Ð¾",
        "ÑĪ"
      ],
      [
        "ĠÐ²Ð¾Ð·",
        "Ð²"
      ],
      [
        "Ñģ",
        "ÑĥÐ´"
      ],
      [
        "ĠÐ½Ð¾Ð³",
        "Ð¸"
      ],
      [
        "ĠÑĤ",
        "Ð²Ð¾"
      ],
      [
        "ĠÐ²Ñĭ",
        "ÑĪ"
      ],
      [
        "Ð¾ÑĤ",
        "Ð°"
      ],
      [
        "Ð",
        "¡"
      ],
      [
        "ĠÐ³Ð»ÑıÐ´",
        "Ñı"
      ],
      [
        "Ð¸Ð²ÑĪ",
        "Ð¸ÑģÑĮ"
      ],
      [
        "ĠÐ´",
        "Ð½Ñı"
      ],
      [
        "ĠÐ¾ÑĤÐ²ÐµÑĩ",
        "Ð°Ð»"
      ],
      [
        "ÑĤ",
        "Ð¸ÑĢ"
      ],
      [
        ")",
        ","
      ],
      [
        "ÑĭÐ»",
        "ÑĮ"
      ],
      [
        "ĠÐ¿ÑĢ",
        "Ð¾Ð¿"
      ],
      [
        "ĠÐ´",
        "ÑĥÑħ"
      ],
      [
        "Ð¸Ðµ",
        "Ñħ"
      ],
      [
        "ĠÐ¿Ð¾Ñĩ",
        "ÐµÐ¼Ñĥ"
      ],
      [
        "ĠÐ¸Ð·Ð²",
        "ÐµÑģÑĤ"
      ],
      [
        "ĠÐ¼",
        "ÐµÑĢ"
      ],
      [
        "ÑĤÐ¾ÑĢ",
        "Ð°"
      ],
      [
        "ĠÐ´",
        "Ð°Ð¼"
      ],
      [
        "ĠÐ´",
        "ÑĥÑĢ"
      ],
      [
        "ĠÐ¿ÑĢÑıÐ¼",
        "Ð¾"
      ],
      [
        "ÑģÑĤÐ²",
        "Ðµ"
      ],
      [
        "ĠÐ¿",
        "ÐµÑĩ"
      ],
      [
        "ĠÐ¸Ð·",
        "Ð¼"
      ],
      [
        "ĠÐ¾Ð´",
        "Ð½Ð°"
      ],
      [
        "ĠÐ¿ÑĢ",
        "Ð¸Ð¼"
      ],
      [
        "ĠÐ²Ñĭ",
        "Ð±"
      ],
      [
        "ĠÑģÐ¿ÑĢÐ¾Ñģ",
        "Ð¸Ð»Ð°"
      ],
      [
        "ĠÐ»ÑİÐ±",
        "Ð¾Ð²"
      ],
      [
        "Ð¸",
        "ÑĢÐ°"
      ],
      [
        "ĠÐŁ",
        "Ð¾Ð»"
      ],
      [
        "ĠÐ¾",
        "ÑĢ"
      ],
      [
        "Ð¼",
        "ÐµÑĤ"
      ],
      [
        "ĠÑĤ",
        "Ð°"
      ],
      [
        "Ð°ÑĤ",
        "Ð¸"
      ],
      [
        "Ð½",
        "ÐµÑģ"
      ],
      [
        "ĠÑĢÐ°ÑģÑģÐº",
        "Ð°Ð·"
      ],
      [
        "Ð¸Ð½",
        "ÑĥÐ»"
      ],
      [
        "Ð¸ÑĤ",
        "ÑĢ"
      ],
      [
        "ĠÐ³",
        "ÐµÐ½ÐµÑĢ"
      ],
      [
        "ĠÐ¸ÑģÐ¿",
        "ÑĥÐ³"
      ],
      [
        "ÐµÐ³Ð¾Ð´",
        "Ð½Ñı"
      ],
      [
        "ĠÑģ",
        "Ð´"
      ],
      [
        "ĠÐ½",
        "ÐµÐ·"
      ],
      [
        "ĠÑįÑĤ",
        "Ð¸Ð¼"
      ],
      [
        "ĠÑģ",
        "Ð¾Ð·"
      ],
      [
        "ĠÐ½",
        "Ð°Ð±"
      ],
      [
        "ÐµÐ»",
        "ÐµÐ½"
      ],
      [
        "Ð°Ð´ÑĨ",
        "Ð°ÑĤÑĮ"
      ],
      [
        "Ð¾Ð»ÑĮ",
        "Ð·"
      ],
      [
        "ĠÐ´",
        "Ð°Ð²Ð½Ð¾"
      ],
      [
        "ĠÐ²ÐµÑģ",
        "ÐµÐ»"
      ],
      [
        "ĠÐ¼",
        "Ð°Ð»ÑĮ"
      ],
      [
        "ÐµÑĢ",
        "Ðº"
      ],
      [
        "Ðº",
        "Ð¾Ð³Ð¾"
      ],
      [
        "ĠÑĪ",
        "ÐµÐ»"
      ],
      [
        "ĠÐ´",
        "Ð¾Ð²Ð¾Ð»ÑĮ"
      ],
      [
        "Ð¸ÑĨ",
        "Ñĭ"
      ],
      [
        "ĠÑĩ",
        "Ð°"
      ],
      [
        "Ñİ",
        "Ð´Ð°"
      ],
      [
        "Ð¾Ñģ",
        "ÐºÐ²"
      ],
      [
        "Ð°Ð½",
        "Ð´ÑĢ"
      ],
      [
        "Ð¾Ð»",
        "Ð¾"
      ],
      [
        "Ð¾ÑĢ",
        "Ð°"
      ],
      [
        "Ð¿",
        "Ð¾Ð´"
      ],
      [
        "ĠÐ¿ÑĢÐµÐ¶",
        "Ð´Ðµ"
      ],
      [
        "Ð¸",
        "Ð¾Ð½"
      ],
      [
        "ĠÑĢ",
        "ÐµÐ·"
      ],
      [
        "ĠÐ¾Ð´",
        "Ð½Ð¾Ð¹"
      ],
      [
        "Ð",
        "ŀ"
      ],
      [
        "ÑĢ",
        "Ð¸Ðº"
      ],
      [
        "ĠÐ³Ð»",
        "ÑĥÐ±"
      ],
      [
        "ĠÐĲÐ½Ð´ÑĢ",
        "ÐµÐ¹"
      ],
      [
        "ĠÐºÑĢ",
        "ÐµÐ¿"
      ],
      [
        "ĠÑĢ",
        "Ñĭ"
      ],
      [
        "ĠÐ²Ñĭ",
        "Ð´"
      ],
      [
        "ÑĢÐ°",
        "Ñĩ"
      ],
      [
        "ĠÐ´",
        "ÐµÑģÑı"
      ],
      [
        "ĠÐ·Ð½Ð°",
        "ÐµÑĤ"
      ],
      [
        "ĠÐ½Ð°",
        "ÑĢÐ¾Ð´"
      ],
      [
        "ĠÐĲ",
        "Ñħ"
      ],
      [
        "ĠÐ³Ð»",
        "Ð°Ð²"
      ],
      [
        "Ð¾Ð±ÑĢ",
        "Ð°Ð¶"
      ],
      [
        "ĠÐ½Ð°Ð·",
        "Ð°Ð´"
      ],
      [
        "Ġ",
        "1"
      ],
      [
        "Ð½",
        "ÐµÐ³Ð¾"
      ],
      [
        "ÑĤ",
        "ÑĢÐ°"
      ],
      [
        "ĠÐ±",
        "ÑĥÐ¼"
      ],
      [
        "ĠÐºÐ¾Ð½",
        "Ñĩ"
      ],
      [
        "Ð»",
        "ÐµÐº"
      ],
      [
        "ĠÐ¾",
        "Ñħ"
      ],
      [
        "ÐµÐ½",
        "Ð½Ð°Ñı"
      ],
      [
        "ÐµÐºÐ¾",
        "ÑĤÐ¾ÑĢ"
      ],
      [
        "ĠÐ´",
        "Ð¸Ð²"
      ],
      [
        "ĠÐ²Ñĭ",
        "ÑĪÐµÐ»"
      ],
      [
        "ĠÐ¾ÑĦÐ¸ÑĨ",
        "ÐµÑĢ"
      ],
      [
        "ĠÐ´",
        "Ð»Ð¸Ð½"
      ],
      [
        "ĠÐ½",
        "ÐµÐ¶"
      ],
      [
        "Ñĩ",
        "ÐµÑĤ"
      ],
      [
        "ĠÐº",
        "ÑĥÐ¿"
      ],
      [
        "ĠÑĢ",
        "ÐµÐ²"
      ],
      [
        "ĠÐ»",
        "Ð°Ñģ"
      ],
      [
        "ĠÐķ",
        "Ð³Ð¾"
      ],
      [
        "ĠÐĲÐ»ÐµÐºÑģ",
        "Ð°Ð½Ð´ÑĢ"
      ],
      [
        "ĠÑģ",
        "ÑĥÐ¼"
      ],
      [
        "ĠÐ¿",
        "Ð¾Ð¹"
      ],
      [
        "ĠÑĢ",
        "ÐµÑĩ"
      ],
      [
        "ÐºÐ¾",
        "Ðµ"
      ],
      [
        "ĠÐ¿",
        "Ð¸Ñģ"
      ],
      [
        "ĠÐ½ÐµÐ¿ÑĢ",
        "Ð¸ÑıÑĤ"
      ],
      [
        "ĠÑĨ",
        "Ð²ÐµÑĤ"
      ],
      [
        "Ð",
        "¢"
      ],
      [
        "ĠÐ¾Ð´",
        "Ð½Ð¾Ð³Ð¾"
      ],
      [
        "ĠÐ´Ð²",
        "Ð¸Ð¶"
      ],
      [
        "ĠÑĤ",
        "ÐµÐ»"
      ],
      [
        "ĠÐ¼",
        "Ð¸ÑĢ"
      ],
      [
        "ĠÐºÐ°Ðº",
        "Ð¸Ðµ"
      ],
      [
        "Ð·",
        "Ð°"
      ],
      [
        "ĠÐŁ",
        "ÐµÑĢÐµÐ´"
      ],
      [
        "ĠÐ²Ð¾Ñģ",
        "Ð¿"
      ],
      [
        "ÐµÐ»",
        "ÐµÐ¹"
      ],
      [
        "ĠÐ¡",
        "Ð¿"
      ],
      [
        "ĠÑģÐ¾Ð»",
        "Ð´Ð°ÑĤ"
      ],
      [
        "ĠÐ²ÐµÐ»",
        "Ð¸Ðº"
      ],
      [
        "Ð°Ð½",
        "ÑĮ"
      ],
      [
        "Ð»Ð¸ÑĪ",
        "ÐºÐ¾Ð¼"
      ],
      [
        "ĠÑģÐ°Ð¼",
        "Ð°"
      ],
      [
        "ĠÑģÐ¾Ð»",
        "Ð½"
      ],
      [
        "ĠÐ¿ÑĢ",
        "Ð¸ÐµÑħ"
      ],
      [
        "ĠÑĤ",
        "Ð¾Ð²Ð°ÑĢ"
      ],
      [
        "ĠÐ²Ð¾Ð·",
        "Ð´"
      ],
      [
        "ĠÐľ",
        "Ð°Ðº"
      ],
      [
        "ĠÐºÐ¾Ð½",
        "ÐµÑĩÐ½Ð¾"
      ],
      [
        "Ð¾Ð·",
        "Ð²"
      ],
      [
        "ĠÑĢÑĥ",
        "ÐºÐ°Ð¼Ð¸"
      ],
      [
        "ĠÐ·Ð°",
        "Ñĩ"
      ],
      [
        "ÐµÑĢ",
        "Ð±"
      ],
      [
        "ĠÐľ",
        "Ð¾ÑģÐºÐ²"
      ],
      [
        "ĠÐ»Ð¸ÑĨ",
        "Ð°"
      ],
      [
        "ĠÑģÐ¼",
        "ÐµÑĢ"
      ],
      [
        "ĠÐ¿ÑĢÐ¸Ñħ",
        "Ð¾Ð´"
      ],
      [
        "ĠÐ¿ÑĢ",
        "Ð¸Ñĩ"
      ],
      [
        "ĠÐº",
        "Ð¾Ð³Ð¾"
      ],
      [
        "ÑģÑı",
        "Ñĩ"
      ],
      [
        "ĠÐĿ",
        "ÐµÑħ"
      ],
      [
        "ÐºÐ¾",
        "Ñİ"
      ],
      [
        "ÑıÑģ",
        "Ð½"
      ],
      [
        "ÑĪ",
        "ÐµÐ³Ð¾"
      ],
      [
        "ĠÑĢÑĥ",
        "Ðº"
      ],
      [
        "ĠÑĥÐ·",
        "Ð½"
      ],
      [
        "ĠÐºÐ½",
        "Ð¸Ð³"
      ],
      [
        "ĠÐ¾Ð±",
        "ÐµÐ´"
      ],
      [
        "ĠÑģ",
        "ÐµÑģÑĤ"
      ],
      [
        "Ð¾Ð±",
        "Ð¾Ð´"
      ],
      [
        "ĠÐ¢",
        "ÑĢ"
      ],
      [
        "ĠÐ³Ð¾Ð»Ð¾Ð²",
        "Ð¾Ð¹"
      ],
      [
        "ĠÐ½",
        "Ð¸Ð¼Ð¸"
      ],
      [
        "ĠÐ¿ÑĢ",
        "Ð¸Ð³"
      ],
      [
        "ĠÐ¸Ð¼",
        "ÐµÐ½Ð½Ð¾"
      ],
      [
        "Ġ",
        "Ñİ"
      ],
      [
        "ÑĥÐ",
        "³Ð¾"
      ],
      [
        "ĠÑı",
        "ÑĢ"
      ],
      [
        "Ð¾Ð»",
        "Ð½"
      ],
      [
        "ĠÐ°",
        "Ð½"
      ],
      [
        "ĠÐ¾",
        "Ð½Ð¾"
      ],
      [
        "ĠÐºÐ¾ÑĤÐ¾ÑĢ",
        "Ð¾Ðµ"
      ],
      [
        "ĠÐ²Ñĭ",
        "Ð³"
      ],
      [
        "ĠÑĥ",
        "ÑĤÑĢ"
      ],
      [
        "Ð°Ð½",
        "Ñĭ"
      ],
      [
        "ĠÑĪ",
        "ÐµÐ¿"
      ],
      [
        "ĠÐ¾",
        "Ð·"
      ],
      [
        "ĠÐ±ÑĥÐ´",
        "Ñĥ"
      ],
      [
        "ĠÑĢ",
        "ÐµÐ±"
      ],
      [
        "ĠÑģ",
        "ÑĩÐ°ÑģÑĤ"
      ],
      [
        "?",
        ".."
      ],
      [
        "ĠÐ²",
        "Ð½Ñĥ"
      ],
      [
        "ĠÑĤ",
        "ÐµÑħ"
      ],
      [
        "Ð¾",
        "ÑĦ"
      ],
      [
        "Ð¸ÑĨ",
        "Ð°"
      ],
      [
        "ĠÑĤÐ¾Ð»",
        "Ð¿"
      ],
      [
        "ĠÐ¼Ð°ÑĤ",
        "ÐµÑĢÐ¸"
      ],
      [
        "Ð¾Ð½",
        "Ñĩ"
      ],
      [
        "ĠÑģ",
        "Ð»Ð¸ÑĪÐºÐ¾Ð¼"
      ],
      [
        "ÑĨ",
        "Ð¸Ð¸"
      ],
      [
        "ĠÐ¼Ð¾",
        "ÐµÐ¹"
      ],
      [
        "ÑĪ",
        "ÐµÐ¹"
      ],
      [
        "ĠÐº",
        "Ð»"
      ],
      [
        "ĠÐ½",
        "Ñĥ"
      ],
      [
        "ĠÐ³Ð¾",
        "ÑĤÐ¾Ð²"
      ],
      [
        "ĠÐ´ÐµÐ»",
        "Ð°ÑĤÑĮ"
      ],
      [
        "ĠÐ¶",
        "Ð¸ÑĤÑĮ"
      ],
      [
        "Ð¾Ð·",
        "ÑĮ"
      ],
      [
        "ĠÑħÐ¾Ñĩ",
        "Ñĥ"
      ],
      [
        "ĠÐ²ÑĭÑģ",
        "Ð¾Ðº"
      ],
      [
        "ĠÑģÐ¾Ð³",
        "Ð»Ð°Ñģ"
      ],
      [
        "ĠÑĩ",
        "ÑĥÑĤÑĮ"
      ],
      [
        "ĠÑĢÐ°ÑģÑģÐº",
        "Ð°Ð·ÑĭÐ²"
      ],
      [
        "Ð¸Ð²",
        "Ð°ÑıÑģÑĮ"
      ],
      [
        "ĠÐº",
        "Ð°Ð¿"
      ],
      [
        "ĠÐĴ",
        "ÐµÐ´ÑĮ"
      ],
      [
        "Ð¾Ð¿",
        "ÑĭÑĤ"
      ],
      [
        "Ð»",
        "Ð¾Ð¼"
      ],
      [
        "ÑģÐº",
        "Ð°"
      ],
      [
        "ÐµÑģ",
        "Ñģ"
      ],
      [
        "ĠÐ½",
        "Ð°Ð³"
      ],
      [
        "Ð°Ð²ÑĪ",
        "Ð¸Ð¹"
      ],
      [
        "ĠÐ»",
        "ÐµÑģ"
      ],
      [
        "ĠÐºÐ¾ÑĤÐ¾ÑĢ",
        "ÑĥÑİ"
      ],
      [
        "Ð½",
        "ÐµÑĤ"
      ],
      [
        "ĠÑģ",
        "ÑĩÐ¸ÑĤ"
      ],
      [
        "ÑģÐº",
        "Ð°Ñı"
      ],
      [
        "Ð½",
        "Ð¸Ñħ"
      ],
      [
        "ĠÐķ",
        "ÑģÐ»Ð¸"
      ],
      [
        "ĠÐ±Ð»",
        "Ð¸Ð·"
      ],
      [
        "ĠÐ¿ÑĢÐµÐº",
        "ÑĢÐ°Ñģ"
      ],
      [
        "ĠÐ´Ð¾Ð»Ð¶",
        "ÐµÐ½"
      ],
      [
        "ĠÐ²ÑģÐ¿",
        "Ð¾Ð¼Ð½"
      ],
      [
        "ĠÐ¼",
        "Ð¾Ðµ"
      ],
      [
        "ĠÐĴÐ°ÑĢ",
        "Ð²Ð°ÑĢ"
      ],
      [
        "Ð¸Ð½",
        "Ñı"
      ],
      [
        "ĠÐ·Ð°",
        "Ñħ"
      ],
      [
        "ĠÐºÐ¾Ð¼Ð½Ð°",
        "ÑĤÐµ"
      ],
      [
        "ÑĪ",
        "Ð¸Ðµ"
      ],
      [
        "ĠÑĤ",
        "Ñĥ"
      ],
      [
        "ÑģÑĤÑĮ",
        "Ñİ"
      ],
      [
        "ĠÐ´Ð²",
        "Ðµ"
      ],
      [
        "ĠÑĥÐ´",
        "Ð°ÑĢ"
      ],
      [
        "ĠÐ½",
        "ÐµÐºÐ¾ÑĤÐ¾ÑĢ"
      ],
      [
        "ĠÐ½Ðµ",
        "Ñİ"
      ],
      [
        "ĠÑģÐ¼Ð¾ÑĤÑĢ",
        "ÐµÐ»"
      ],
      [
        "ĠÑģÐ¾Ñģ",
        "ÑĤÐ¾"
      ],
      [
        "ĠÐ¾ÑĤ",
        "ÑĨÐ°"
      ],
      [
        "ĠÐ¾Ð±",
        "ÑĢÐ°Ñī"
      ],
      [
        "ĠÐ¸Ð·",
        "Ð±"
      ],
      [
        "ĠÐ¿Ð¾Ðº",
        "Ð°"
      ],
      [
        "ĠÑģÐ¾Ð±",
        "Ð¾Ð¹"
      ],
      [
        "ĠÐ»",
        "Ð°Ð´"
      ],
      [
        "ĠÐ´",
        "Ð¾Ñĩ"
      ],
      [
        "ĠÐµ",
        "Ñħ"
      ],
      [
        "ĠÑģÐ¸Ð´",
        "ÐµÐ»"
      ],
      [
        "Ð¸Ñģ",
        "ÑĤÐ¾"
      ],
      [
        "Ñĥ",
        "Ñı"
      ],
      [
        "ĠÐ³ÑĢ",
        "ÑĥÐ´"
      ],
      [
        "Ð°Ð½",
        "Ð½ÑĭÐ¹"
      ],
      [
        "ĠÐ·Ð½Ð°",
        "ÐµÑĤÐµ"
      ],
      [
        "ĠÐŀ",
        "ÑĢ"
      ],
      [
        "Ð¾ÑģÑĤ",
        "ÑĮÑİ"
      ],
      [
        "Ð¸Ð²",
        "Ð°Ð»Ð°"
      ],
      [
        "ĠÐĲÐ½",
        "Ð½Ð°"
      ],
      [
        "ÐµÑĢÑĤ",
        "Ð²"
      ],
      [
        "ĠÐ¿ÑĢÐ¸Ð±",
        "Ð°Ð²"
      ],
      [
        "Ð",
        "¯"
      ],
      [
        "Ð²",
        "Ð¾Ð´"
      ],
      [
        "Ð½Ð°",
        "ÑĤÑĮ"
      ],
      [
        "ĠÐ´ÑĢ",
        "Ð¾Ð¶"
      ],
      [
        "ĠÐºÑĢ",
        "ÐµÑģÑĤ"
      ],
      [
        "ĠÐ´Ð²",
        "ÐµÑĢÐ¸"
      ],
      [
        "ÐµÐ¶",
        "Ð°Ð»"
      ],
      [
        "Ð½Ð°",
        "ÑĤ"
      ],
      [
        "ĠÐºÐ°Ðº",
        "Ð°Ñı"
      ],
      [
        "Ð¸ÑĤ",
        "Ð°"
      ],
      [
        "ĠÑģÐ»Ð¾Ð²",
        "Ð¾"
      ],
      [
        "ĠÐĴ",
        "ÐµÑĢ"
      ],
      [
        "Ð¸Ð´",
        "Ð½Ð¾"
      ],
      [
        "ĠÐł",
        "Ð¾ÑģÑĤ"
      ],
      [
        "ÑģÐº",
        "Ð¾Ð¼"
      ],
      [
        "ĠÐĿ",
        "Ð°Ð´"
      ],
      [
        "ĠÐ¿Ð¾Ð´",
        "Ð½ÑıÐ»"
      ],
      [
        "ĠÐ´Ð²",
        "ÑĥÑħ"
      ],
      [
        "ĠÐ¿ÑĢÐ¸Ðº",
        "Ð°Ð·"
      ],
      [
        "Ð¾Ð²",
        "Ð°Ð»Ð°"
      ],
      [
        "Ð½Ð¸Ðº",
        "Ð¸"
      ],
      [
        "ĠÐ¸Ð½",
        "ÑĤÐµÑĢÐµÑģ"
      ],
      [
        "ĠÐ²Ð·Ð´",
        "Ð¾Ñħ"
      ],
      [
        "ĠÑī",
        "ÐµÐº"
      ],
      [
        ".",
        "--"
      ],
      [
        "ĠÑģ",
        "ÐµÐ³Ð¾Ð´Ð½Ñı"
      ],
      [
        "Ð³",
        "Ð°"
      ],
      [
        "ĠÑĦ",
        "ÑĢÐ°Ð½ÑĨÑĥÐ·"
      ],
      [
        "ĠÑģÐ¼",
        "Ðµ"
      ],
      [
        "ĠÐ·Ð°Ð¼",
        "ÐµÑĩ"
      ],
      [
        "ĠÑĥÑģ",
        "Ð¼"
      ],
      [
        "ĠÐ²Ð¾Ð·",
        "Ð¼"
      ],
      [
        "Ð¾ÑĢ",
        "Ð¼"
      ],
      [
        "Ð½Ð¾ÑģÑĤÑĮ",
        "Ñİ"
      ],
      [
        "ĠÐł",
        "Ð°Ñģ"
      ],
      [
        "ĠÐ´",
        "Ð°Ð»ÑĮ"
      ],
      [
        "Ð°Ðº",
        "Ð°"
      ],
      [
        "ĠÐ¼Ñĭ",
        "ÑģÐ»Ð¸"
      ],
      [
        "Ð»",
        "Ð°Ð³"
      ],
      [
        "ĠÐ¿ÑĢ",
        "Ð¾Ð¼"
      ],
      [
        "ĠÐĶÐ°Ð²",
        "ÑĭÐ´"
      ],
      [
        "Ð¿",
        "Ð¾Ð»"
      ],
      [
        "Ð¾Ð¼",
        "Ð¸Ð½Ð°"
      ],
      [
        "ĠÐļ",
        "Ð¾Ð½"
      ],
      [
        "ÑģÑĤÐ²",
        "Ð¸Ðµ"
      ],
      [
        "ĠÑĤÑĭ",
        "ÑģÑıÑĩ"
      ],
      [
        "ĠÑģÐºÐ¾ÑĢ",
        "Ð¾"
      ],
      [
        "ĠÑĤÐ¾Ð²Ð°ÑĢ",
        "Ð¸Ñī"
      ],
      [
        "ĠÐ±Ð»",
        "ÐµÐ´"
      ],
      [
        "ÑĨ",
        "ÐµÐ¼"
      ],
      [
        "ĠÐ±",
        "Ð°ÑĤ"
      ],
      [
        "ÑīÐµ",
        "Ðµ"
      ],
      [
        "ÐµÑħ",
        "Ð°Ð»"
      ],
      [
        "âĢ¦",
        "\""
      ],
      [
        "ĠÐº",
        "Ð°Ð±"
      ],
      [
        "ĠÐ¼Ð¾Ð³",
        "Ð»Ð°"
      ],
      [
        "ÑĭÐ²",
        "Ð°ÑĤÑĮ"
      ],
      [
        "ĠÐ²ÑģÑĤÑĢ",
        "ÐµÑĩ"
      ],
      [
        "ĠÐºÐ¾ÑĤÐ¾ÑĢ",
        "ÑĭÑħ"
      ],
      [
        "ĠÐ²Ð¾ÑĢ",
        "Ð¾ÑĤ"
      ],
      [
        "ĠÐ¡",
        "Ð»"
      ],
      [
        "ĠÑģ",
        "ÐµÐº"
      ],
      [
        "ĠÐºÐ¾Ð¼Ð½Ð°",
        "ÑĤÑĥ"
      ],
      [
        "Ð¸Ð²",
        "Ð°Ð»Ð¸"
      ],
      [
        "ÑıÑĤ",
        "Ð½Ð¾"
      ],
      [
        "Ð¾Ð¶",
        "Ð¸Ð´"
      ],
      [
        "Ð»",
        "Ñĥ"
      ],
      [
        "ĠÐ¿Ð»",
        "Ð°ÑĤ"
      ],
      [
        "Ð¼",
        "Ð°ÑĤÑĢ"
      ],
      [
        "ĠÐ¿ÐµÑĢÐ²",
        "ÑĭÐ¹"
      ],
      [
        "ĠÐ·Ð°Ð¼ÐµÑĤ",
        "Ð¸Ð»"
      ],
      [
        "ĠÐ²",
        "ÑĤÐ¾ÑĢ"
      ],
      [
        "Ð¾ÑĤ",
        "Ð°Ð»"
      ],
      [
        "ĠÐļ",
        "Ð½Ñı"
      ],
      [
        "ĠÐ³Ð¾Ð²Ð¾ÑĢ",
        "Ñİ"
      ],
      [
        "ĠÐ²",
        "Ð°Ð¼Ð¸"
      ],
      [
        "ÑĪ",
        "Ð¸Ñħ"
      ],
      [
        "ĠÐ¼Ð¾Ð»",
        "ÑĩÐ°"
      ],
      [
        "ĠÑĢÑĥ",
        "ÐºÐ¾Ð¹"
      ],
      [
        "ĠÐ²",
        "Ñĩ"
      ],
      [
        "ÑģÐº",
        "ÑĥÑİ"
      ],
      [
        "ĠÐ¿Ð¾Ð¶Ð°Ð»",
        "ÑĥÐ¹"
      ],
      [
        "Ð¾Ð´",
        "Ð°ÑĢ"
      ],
      [
        "ĠÑģÑĤÐ¾ÑĢÐ¾Ð½",
        "Ñĭ"
      ],
      [
        "Ð¾Ð¼",
        "Ðµ"
      ],
      [
        "ÑĢÐ¸Ñĩ",
        "Ð°Ð»"
      ],
      [
        "ĠÐ²Ð·",
        "ÑıÐ»"
      ],
      [
        "ĠÐ¢",
        "Ð¾Ð»ÑĮÐºÐ¾"
      ],
      [
        "ĠÐ½Ð¾Ñĩ",
        "ÑĮ"
      ],
      [
        "ĠÐļ",
        "ÑĤÐ¾"
      ],
      [
        "ĠÐĿÐµÑħ",
        "Ð»ÑİÐ´"
      ],
      [
        "ĠÐ²Ð¸Ð´",
        "ÐµÑĤÑĮ"
      ],
      [
        "ÑģÐº",
        "Ð¸"
      ],
      [
        "ĠÐ²ÑĢÐµÐ¼",
        "ÐµÐ½Ð¸"
      ],
      [
        "ĠÐ¿",
        "Ð°Ð¿"
      ],
      [
        "ĠÐ´",
        "Ð¾Ð³"
      ],
      [
        "Ð¸Ð¶",
        "Ñĥ"
      ],
      [
        "ĠÑĥ",
        "ÑĪ"
      ],
      [
        "Ð°Ð»ÑĮ",
        "Ð½Ð¾"
      ],
      [
        "ĠÐ·",
        "ÑĥÐ±"
      ],
      [
        "ĠÐ¾Ñģ",
        "Ð²"
      ],
      [
        "ĠÐ¿",
        "ÑıÑĤÑĮ"
      ],
      [
        "ĠÐ¾Ð±",
        "Ð»"
      ],
      [
        "ÑĢÑı",
        "Ð´"
      ],
      [
        "ĠÐĽ",
        "Ñİ"
      ],
      [
        "ĠÐŁÐµÑĤ",
        "ÑĢ"
      ],
      [
        "ĠÑĪ",
        "ÑĥÐ¼"
      ],
      [
        "ĠÑĩÑĥÐ²ÑģÑĤÐ²",
        "Ð¾Ð²Ð°Ð»"
      ],
      [
        "ĠÑģÑĤÐ¾ÑĢÐ¾Ð½",
        "Ñĥ"
      ],
      [
        "ĠÐ²Ñĭ",
        "Ð·"
      ],
      [
        "ÐºÑĥ",
        "Ñİ"
      ],
      [
        "ĠÐ²ÑģÑĤÑĢ",
        "ÐµÑĤ"
      ],
      [
        "ĠÑĢÐ°Ð·",
        "Ð¼"
      ],
      [
        "ĠÐ·Ð°",
        "ÑģÑĤÐ°Ð²"
      ],
      [
        "ĠÐ¼",
        "ÑĥÑĩ"
      ],
      [
        "ĠÐ¼",
        "ÐµÑģÑĤÐ¾"
      ],
      [
        "ĠÑĢÐ°Ñģ",
        "Ðº"
      ],
      [
        "ĠÐ¡ÑĤ",
        "Ð°ÑĢ"
      ],
      [
        "ĠÑģÐ°Ð¼",
        "Ð¾Ð¼"
      ],
      [
        "ĠÑģ",
        "ÐµÐ»"
      ],
      [
        "ĠÐ¼",
        "ÐµÐ»"
      ],
      [
        "ĠÐ²",
        "ÑĢ"
      ],
      [
        "ĠÐ¢",
        "ÐµÐ¿ÐµÑĢÑĮ"
      ],
      [
        "ÑĤ",
        "Ñı"
      ],
      [
        "ĠÐ»Ð¸ÑĨ",
        "Ðµ"
      ],
      [
        "ĠÑģÐ¼",
        "ÐµÑĪ"
      ],
      [
        "ĠÐ¿ÐµÑĢ",
        "ÐµÐ±"
      ],
      [
        "ĠÑħÐ¾Ð·Ñı",
        "Ð¹"
      ],
      [
        "Ð°",
        "Ñī"
      ],
      [
        "Ð°Ð´",
        "Ð¸"
      ],
      [
        "ĠÐ¼",
        "Ð½Ð¾Ð¹"
      ],
      [
        "Â",
        "»"
      ],
      [
        "ÑĥÑĪ",
        "ÐºÐ¸"
      ],
      [
        "ĠÐ³Ð¾",
        "ÑģÑĥÐ´"
      ],
      [
        "ĠÐ¿ÐµÑĢ",
        "ÐµÑģÑĤ"
      ],
      [
        "Ð¸",
        "ÑĤÐ¾"
      ],
      [
        "ĠÐº",
        "Ð¾Ñģ"
      ],
      [
        "ĠÐ¼Ð¾",
        "ÐµÐ³Ð¾"
      ],
      [
        "ĠÐ½",
        "ÑĢÐ°Ð²"
      ],
      [
        "Ð°ÑİÑĤ",
        "ÑģÑı"
      ],
      [
        "Â",
        "«"
      ],
      [
        "ĠÐŁÐ°Ð²",
        "Ð»Ð¾Ð²"
      ],
      [
        "ĠÐ½Ð°Ð¿",
        "ÑĢÐ°Ð²"
      ],
      [
        "ĠÑĤ",
        "Ð¾Ð±"
      ],
      [
        "ĠÐ¼",
        "Ð°Ð»Ð¾"
      ],
      [
        "ĠÐ²Ð¾ÑģÐº",
        "Ð»Ð¸Ðº"
      ],
      [
        "ĠÐ¿ÑĢ",
        "Ð¸Ð»"
      ],
      [
        "ÑģÐº",
        "Ð¸Ð¼"
      ],
      [
        "ĠÐ¾",
        "ÑģÑĤÑĢ"
      ],
      [
        "Ð±",
        "Ñĭ"
      ],
      [
        "Ð¾Ð²",
        "Ñĥ"
      ],
      [
        "ĠÐ¿Ð¾Ð´",
        "Ð½Ñı"
      ],
      [
        "ĠÑģÐ²Ð¾",
        "ÐµÐ¼"
      ],
      [
        "ĠÐ¼",
        "Ð³"
      ],
      [
        "ĠÐ´",
        "Ð¾Ð±"
      ],
      [
        "ĠÐ»",
        "Ð¸ÑĪÑĮ"
      ],
      [
        "Ð°Ð",
        "³Ð¾ÑĢ"
      ],
      [
        "ĠÑģ",
        "Ð°Ð¼Ð¸"
      ],
      [
        "ĠÐ·Ð°Ð´",
        "ÑĥÐ¼"
      ],
      [
        "ĠÐ½",
        "ÐµÐ½"
      ],
      [
        "ĠÐº",
        "Ð²Ð°ÑĢ"
      ],
      [
        "ĠÐ¶",
        "ÐµÑģÑĤ"
      ],
      [
        "ĠÐ´ÐµÐ»",
        "Ðµ"
      ],
      [
        "ĠÐ¡",
        "Ð¼"
      ],
      [
        "ĠÐ¾Ð´",
        "Ð½Ð°ÐºÐ¾"
      ],
      [
        "ĠÐ§",
        "ÐµÑĢ"
      ],
      [
        "ĠÐ²Ð¾Ð·Ð´",
        "ÑĥÑħ"
      ],
      [
        "Ð°Ð·",
        "Ð´"
      ],
      [
        "Ð¾ÑĪ",
        "Ð»Ð°"
      ],
      [
        "ĠÐ´Ð¾Ð²Ð¾Ð»ÑĮ",
        "Ð½Ð¾"
      ],
      [
        "ĠÑħ",
        "Ñĥ"
      ],
      [
        "ÐµÑĩ",
        "Ð°ÑĤ"
      ],
      [
        "ĠÐ²",
        "Ð°Ð¶"
      ],
      [
        "Ð¾ÑĤ",
        "Ð¸Ð²"
      ],
      [
        "ĠÑģ",
        "ÑĥÑīÐµ"
      ],
      [
        "ĠÑĢ",
        "Ð°ÑģÑĤ"
      ],
      [
        "Ð½Ð¸ÑĨ",
        "Ð°"
      ],
      [
        "ĠÐ·Ð°Ñĩ",
        "ÐµÐ¼"
      ],
      [
        "Ġ",
        "Â«"
      ],
      [
        "ĠÐ½",
        "Ð°Ð»"
      ],
      [
        "ĠÐºÑĢÐ¸Ðº",
        "Ð½ÑĥÐ»"
      ],
      [
        "ÐµÐ¼",
        "ÐµÐ½"
      ],
      [
        "ĠÐ´Ð¾Ð»Ð¶",
        "Ð½Ð¾"
      ],
      [
        "ĠÐ¿",
        "ÑĥÑĤ"
      ],
      [
        "ÑıÐ»",
        "Ð°ÑģÑĮ"
      ],
      [
        "ÑĪ",
        "Ð°Ñı"
      ],
      [
        "ĠÐ´",
        "Ð¾Ð²"
      ],
      [
        "ĠÑĩ",
        "ÑĥÐ¶"
      ],
      [
        "Ð½ÑĥÐ²",
        "ÑĪÐ¸ÑģÑĮ"
      ],
      [
        "Ð¾Ð¼",
        "Ð¸Ð½"
      ],
      [
        "ĠÑĥÐ»ÑĭÐ±",
        "Ð°ÑıÑģÑĮ"
      ],
      [
        "ĠÐ¿ÑĢÐ¾Ð³",
        "Ð¾Ð²Ð¾ÑĢÐ¸Ð»"
      ],
      [
        "ĠÑĤ",
        "Ð²ÐµÑĢÐ´"
      ],
      [
        "ĠÑģÑĤ",
        "ÐµÐ½"
      ],
      [
        "ĠÑģÑĤÑĢÐ°",
        "Ñħ"
      ],
      [
        "ĠÐ½Ð¸Ðº",
        "ÑĤÐ¾"
      ],
      [
        "ĠÐ¼",
        "ÐµÑĪ"
      ],
      [
        "ÑĮ",
        "Ð¸"
      ],
      [
        "Ðº",
        "Ð¾Ð½"
      ],
      [
        "ĠÑĩÐ°Ñģ",
        "ÑĤÐ¾"
      ],
      [
        "ĠÐ¾Ðº",
        "Ð¾Ð»Ð¾"
      ],
      [
        "ĠÑĤÐ¾ÑĢ",
        "Ð¾Ð¿"
      ],
      [
        "ĠÐ¼ÑĭÑģÐ»",
        "ÑĮ"
      ],
      [
        "ĠÐ³Ð¾Ð²Ð¾ÑĢ",
        "Ð¸Ð»Ð¸"
      ],
      [
        "ĠÐ¢",
        "ÑĥÑĤ"
      ],
      [
        "Ð²",
        "Ð¸"
      ],
      [
        "ĠÐ¿ÐµÑĢ",
        "ÐµÐ²"
      ],
      [
        "ĠÐ¿Ð¾Ñħ",
        "Ð¾Ð¶"
      ],
      [
        "ÑĥÑĢ",
        "Ð³"
      ],
      [
        "ĠÐĿÐ¸ÐºÐ¾Ð»",
        "Ð°Ð¹"
      ],
      [
        "Ġ",
        "["
      ],
      [
        "ĠÐ·Ð´",
        "Ð¾ÑĢÐ¾Ð²"
      ],
      [
        "Ð¾ÑĤ",
        "Ñĭ"
      ],
      [
        "ĠÑĤ",
        "Ð¾Ð¹"
      ],
      [
        "Ð¸Ð²",
        "Ð°ÐµÑĤ"
      ],
      [
        "Ð¾Ðº",
        "Ð°"
      ],
      [
        "Ð»ÐµÐ½",
        "Ð°"
      ],
      [
        "ĠÑģÐ´ÐµÐ»",
        "Ð°ÑĤÑĮ"
      ],
      [
        "Ð¸ÑĤÐµ",
        "ÑģÑĮ"
      ],
      [
        "ĠÑģÑĤ",
        "Ð°Ð»Ð°"
      ],
      [
        "ĠÐĶ",
        "Ð¾Ð»"
      ],
      [
        "ĠÐ»Ð¸ÑĨ",
        "Ð¾Ð¼"
      ],
      [
        "ĠÑĤ",
        "ÐµÐ¿"
      ],
      [
        "ĠÐºÐ°Ðº",
        "Ð¾Ðµ"
      ],
      [
        "ĠÐ´ÐµÐ½ÑĮ",
        "Ð³Ð¸"
      ],
      [
        "ĠÑĤÐ°Ðº",
        "Ð¸Ðµ"
      ],
      [
        "Ð±",
        "Ð°"
      ],
      [
        "Ð°ÑĤ",
        "ÑĭÐ¹"
      ],
      [
        "ĠÐĳ",
        "Ñĭ"
      ],
      [
        "ÑĪÐµ",
        "Ðµ"
      ],
      [
        "ĠÐ³Ð¾Ð»",
        "ÑĥÐ±"
      ],
      [
        "ĠÐ¿Ð¾Ñĩ",
        "ÑĥÐ²ÑģÑĤÐ²"
      ],
      [
        "ĠÑģÐ¾Ð±",
        "Ð¾Ñİ"
      ],
      [
        "ĠÐ¿",
        "Ð»Ð°"
      ],
      [
        "ĠÐķ",
        "Ð²"
      ],
      [
        "ĠÐºÑĢ",
        "Ð°Ð¹"
      ],
      [
        "Ð¾Ð½",
        "Ñı"
      ],
      [
        "ĠÐļ",
        "Ð°ÑĤ"
      ],
      [
        "ĠÐ¾Ðº",
        "Ð½Ð°"
      ],
      [
        "ĠÑģ",
        "ÑİÐ´Ð°"
      ],
      [
        "ĠÑģÑĤÐ°ÑĢ",
        "Ð¸Ðº"
      ],
      [
        ")",
        "."
      ],
      [
        "ĠÐ´Ð¾Ð¼",
        "Ð¾Ð¹"
      ],
      [
        "ĠÑĢÑıÐ´",
        "Ð¾Ð¼"
      ],
      [
        "Ñĥ",
        "ÑģÑĤÑĮ"
      ],
      [
        "ĠÐļ",
        "ÑĢ"
      ],
      [
        "ĠÐ",
        "¦"
      ],
      [
        "ĠÐ¡Ð°Ð¼",
        "Ð³"
      ],
      [
        "ĠÑģÑĤ",
        "Ð°Ð½Ð¾Ð²"
      ],
      [
        "ĠÑģÐ°Ð¼",
        "Ð¾Ð³Ð¾"
      ],
      [
        "ĠÐ¿ÐµÑĢ",
        "Ðµ"
      ],
      [
        "ĠÐ¶ÐµÐ½Ñī",
        "Ð¸Ð½Ð°"
      ],
      [
        "ĠÑĤÑıÐ¶",
        "ÐµÐ»"
      ],
      [
        "ĠÑı",
        "Ð·"
      ],
      [
        "ĠÐ¸Ð½",
        "Ð¾Ð³Ð´Ð°"
      ],
      [
        "ĠÐ¿Ð»",
        "Ð°ÑĤÑĮ"
      ],
      [
        "ĠÐ·",
        "Ð¾Ð»"
      ],
      [
        "Ð±",
        "Ñĥ"
      ],
      [
        "ÑĢÐ°Ð·",
        "Ñĥ"
      ],
      [
        "ĠÐĲÐ»",
        "ÐµÑĪ"
      ],
      [
        "ĠÐ³ÐµÐ½ÐµÑĢ",
        "Ð°Ð»"
      ],
      [
        ",",
        "-"
      ],
      [
        "Ð",
        "ĺ"
      ],
      [
        "Ð¸Ð²",
        "Ð¾"
      ],
      [
        "ĠÐ²",
        "Ð¾Ð²"
      ],
      [
        "ĠÐ¿ÑĢ",
        "Ð¸ÑĤ"
      ],
      [
        "ĠÐ¡",
        "ÐµÑĢÐ³"
      ],
      [
        "ĠÐĽ",
        "ÑİÐ±"
      ],
      [
        "ÑĢÑĭ",
        "ÑĤ"
      ],
      [
        "ĠÐ¼",
        "ÐµÑģÑı"
      ],
      [
        "ĠÑĩ",
        "ÑĥÐ´"
      ],
      [
        "ĠÐ·Ð½Ð°",
        "Ñĩ"
      ],
      [
        "Ñģ",
        "Ð°"
      ],
      [
        "Ð¼Ñĥ",
        "Ñī"
      ],
      [
        "Ġ",
        "âĢĶ"
      ],
      [
        "ĠÐ²Ð¸Ð´",
        "Ð½Ð¾"
      ],
      [
        "ĠÑĥ",
        "Ñħ"
      ],
      [
        "ĠÐ·Ð½Ð°",
        "ÑĤÑĮ"
      ],
      [
        "ĠÐ½Ð°Ð¿",
        "ÑĢ"
      ],
      [
        "ĠÑĤÐ°Ðº",
        "Ð¸Ð¼"
      ],
      [
        "ĠÐĳ",
        "Ð¾Ð³"
      ],
      [
        "Ð½Ð¸ÑĨ",
        "Ñĭ"
      ],
      [
        "ĠÑĩÐµÑĤ",
        "ÑĭÑĢ"
      ],
      [
        "ĠÐ±",
        "ÐµÐ³"
      ],
      [
        "ĠÐ¼Ð½",
        "Ð¾Ð³"
      ],
      [
        "ÑģÑĤÐ²",
        "Ñĥ"
      ],
      [
        "ĠÐºÑĢ",
        "Ð¾Ð¼Ðµ"
      ],
      [
        "ĠÐĿ",
        "Ð°Ð¿"
      ],
      [
        "ĠÑģÐº",
        "Ð¾Ð»ÑĮÐºÐ¾"
      ],
      [
        "Ð»Ñı",
        "ÑĤÑĮ"
      ],
      [
        "ĠÑģÐ»",
        "Ð°Ð±"
      ],
      [
        "ĠÑĪ",
        "ÑĤ"
      ],
      [
        "ĠÐ¾Ð±",
        "ÑīÐµ"
      ],
      [
        "Ð",
        "ľ"
      ],
      [
        "ĠÐ¿ÑĢ",
        "Ð¸ÑģÑĤ"
      ],
      [
        "ĠÐ¼Ð°Ð»ÑĮ",
        "ÑĩÐ¸Ðº"
      ],
      [
        "ÑĢ",
        "Ñĥ"
      ],
      [
        "ĠÑĤ",
        "ÐµÑĢ"
      ],
      [
        "ĠÑĩÑĥÐ²ÑģÑĤÐ²",
        "Ð¾"
      ],
      [
        "ĠÐµ",
        "Ð¶"
      ],
      [
        "Ð¾Ð»",
        "Ð¾Ñģ"
      ],
      [
        "ĠÐļ",
        "Ð¾ÑĢ"
      ],
      [
        "ĠÑĢ",
        "Ð°Ð²"
      ],
      [
        "Ðµ",
        "ÐµÑĤ"
      ],
      [
        "Ð°Ð´",
        "ÑĮ"
      ],
      [
        "ĠÐ¼Ð³",
        "Ð½Ð¾Ð²"
      ],
      [
        "ĠÐ²",
        "Ð»Ð°"
      ],
      [
        "ĠÑĨ",
        "ÐµÑĢ"
      ],
      [
        "ĠÑĥ",
        "ÑģÑĤ"
      ],
      [
        "Ð¾Ð¶",
        "Ð°Ð»"
      ],
      [
        "ĠÐ¿Ð¸ÑģÑĮ",
        "Ð¼Ð¾"
      ],
      [
        "ĠÐ°",
        "Ð²"
      ],
      [
        "ĠÐ½Ðµ",
        "Ð¸Ð·"
      ],
      [
        "ĠÐ³Ð¾ÑĢ",
        "ÑıÑĩ"
      ],
      [
        "ĠÐ·Ð°Ð²",
        "ÑĤÑĢÐ°"
      ],
      [
        "ĠÐ½",
        "ÐµÐº"
      ],
      [
        "Ð°Ð½",
        "Ðµ"
      ],
      [
        "ĠÐ´ÐµÐ¹ÑģÑĤÐ²",
        "Ð¸ÑĤÐµÐ»ÑĮÐ½Ð¾"
      ],
      [
        "ĠÐ´",
        "ÑĭÐ¼"
      ],
      [
        "ĠÐºÐ¾ÑĤÐ¾ÑĢ",
        "Ð¾Ð¼"
      ],
      [
        "ÑĢ",
        "ÐµÑĤ"
      ],
      [
        "Ð²",
        "Ðµ"
      ],
      [
        "Ð²",
        "Ð¸Ð¶"
      ],
      [
        "ĠÑĤÑĢ",
        "ÐµÐ²"
      ],
      [
        "ÑıÑĤÑĮ",
        "ÑģÑı"
      ],
      [
        "ĠÐ²",
        "ÐµÑī"
      ],
      [
        "ĠÐ¼",
        "Ð¸Ð¼Ð¾"
      ],
      [
        "ĠÐļ",
        "Ð°ÑĢ"
      ],
      [
        "ĠÐĺ",
        "Ð½"
      ],
      [
        "ĠÑĪ",
        "ÑĥÑĤ"
      ],
      [
        "ÐµÑĢÑĮ",
        "ÐµÐ·"
      ],
      [
        "ĠÐ¾Ð¿",
        "Ð°Ñģ"
      ],
      [
        "ĠÑĤÐ¾Ð»",
        "ÑģÑĤ"
      ],
      [
        "ÐµÐ½",
        "Ð½ÑĥÑİ"
      ],
      [
        "Ð½Ñĥ",
        "Ð»Ð¸"
      ],
      [
        "ĠÐ¿Ð¾Ð´",
        "Ð¾ÑĪÐµÐ»"
      ],
      [
        "ĠÐĽ",
        "Ð¸Ð·"
      ],
      [
        "Ð½Ð¸",
        "Ð¸"
      ],
      [
        "ĠÐºÐ°Ðº",
        "Ð¸Ð¼"
      ],
      [
        "Ð¾Ð²",
        "Ð°Ð»Ð¸"
      ],
      [
        "Ð¾Ð±",
        "ÑīÐµ"
      ],
      [
        "ĠÑģÑĩÐ°ÑģÑĤ",
        "Ð»Ð¸Ð²"
      ],
      [
        "ĠÐ¿Ð¾Ñģ",
        "Ð¿"
      ],
      [
        "ĠÑĤÑĢ",
        "ÐµÐ±"
      ],
      [
        "ĠÑģ",
        "Ð¸Ð½"
      ],
      [
        "Ð²",
        "Ð¸Ð½"
      ],
      [
        "ĠÐ´ÐµÐ»",
        "Ð°"
      ],
      [
        "ÑĩÐ¸Ð²",
        "Ð¾"
      ],
      [
        "Ð°Ð½",
        "Ð¸Ð¸"
      ],
      [
        "Ð¸Ð¼",
        "ÑģÑı"
      ],
      [
        "Ð³",
        "Ð°ÑĢ"
      ],
      [
        "ĠÐĽ",
        "Ð¸ÑĤ"
      ],
      [
        "ÐµÐ»",
        "Ñİ"
      ],
      [
        "Ð¾ÑģÑĤ",
        "Ð°Ð²"
      ],
      [
        "ĠÐ¸ÑģÐ¿",
        "ÑĭÑĤ"
      ],
      [
        "ĠÐ",
        "®"
      ],
      [
        "ĠÐŁ",
        "Ð¾ÑĤÐ¾Ð¼"
      ],
      [
        "ÑıÑĤ",
        "ÐµÐ»ÑĮ"
      ],
      [
        "ĠÐŁÐµÑĤÑĢÐ¾Ð²",
        "Ð¸Ñĩ"
      ],
      [
        "ĠÐ²Ð°ÑĪ",
        "Ðµ"
      ],
      [
        "ĠÐºÐ¾Ð¼Ð½Ð°",
        "ÑĤÑĭ"
      ],
      [
        "ĠÑĩ",
        "ÑĢÐµÐ·"
      ],
      [
        "Ð¾Ñģ",
        "Ñģ"
      ],
      [
        "ĠÐ¾ÑĤÐ¿",
        "ÑĢÐ°Ð²"
      ],
      [
        "ĠÑģÐº",
        "Ð²"
      ],
      [
        "Ñĭ",
        "Ñģ"
      ],
      [
        "Ð»ÑıÐ´",
        "ÑĭÐ²"
      ],
      [
        "Ð¼Ð¾ÑĤÑĢ",
        "Ñı"
      ],
      [
        "ĠÐ¼Ð¾",
        "Ð¸"
      ],
      [
        "ĠÐ²",
        "ÑģÑĤÐ°Ð»"
      ],
      [
        "ĠÐ»",
        "ÐµÐ²"
      ],
      [
        "Ð¾Ð±",
        "Ñī"
      ],
      [
        "ÑģÐº",
        "Ð¾ÑĢ"
      ],
      [
        "Ð»",
        "ÐµÐ¹"
      ],
      [
        "ĠÑģÑĤ",
        "Ð°Ð»Ð¸"
      ],
      [
        "Ð¾Ñĩ",
        "ÐºÐ°"
      ],
      [
        "ÑĤ",
        "Ð°Ð¼"
      ],
      [
        "ĠÐĴ",
        "Ð¾"
      ],
      [
        "ĠÐĶ",
        "Ð¼"
      ],
      [
        "ĠÑģÐ²",
        "Ð¾Ð±Ð¾Ð´"
      ],
      [
        "ĠÐ¾Ð´",
        "Ð½Ñĥ"
      ],
      [
        "ĠÐ²",
        "Ð¾Ðº"
      ],
      [
        "ĠÐ¼",
        "ÑıÐ³"
      ],
      [
        "ĠÑģÐ»Ð¾Ð²",
        "Ð½Ð¾"
      ],
      [
        "ĠÑĢÐ°Ð´",
        "Ð¾ÑģÑĤ"
      ],
      [
        "Ð°Ð½",
        "Ð½ÑĭÐµ"
      ],
      [
        "ĠÐ³",
        "Ð¾Ð´Ð°"
      ],
      [
        "ĠÐ±Ð»",
        "ÐµÑģÑĤ"
      ],
      [
        "Ðº",
        "Ð¸Ð¼Ð¸"
      ],
      [
        "Ñģ",
        "ÑĤÐ¾"
      ],
      [
        "Ð°Ð½",
        "Ð¸ÐµÐ¼"
      ],
      [
        "ĠÑģ",
        "ÑĥÑħ"
      ],
      [
        "ĠÐ¿",
        "ÑĮÑı"
      ],
      [
        "ĠÐ¾ÑĤ",
        "Ð½Ð¾ÑĪ"
      ],
      [
        "ĠÐľÐ°ÑĢ",
        "ÑĮÑı"
      ],
      [
        "Ð³Ð¾",
        "ÑĢ"
      ],
      [
        "ĠÑģÐ²",
        "Ð¸Ð´"
      ],
      [
        "Ð¸ÑĨ",
        "Ñĥ"
      ],
      [
        "ÑĩÐ°",
        "ÑģÑĤÑĮ"
      ],
      [
        "ĠÐ»",
        "Ð¸ÑĪ"
      ],
      [
        "ĠÐ´ÑĢ",
        "ÑĥÐ¶"
      ],
      [
        "ĠÐºÐ¾ÑĢ",
        "Ð¾ÑĤ"
      ],
      [
        "ĠÐ·Ð°Ð½",
        "Ð¸Ð¼"
      ],
      [
        "ĠÐ¼ÐµÐ´",
        "Ð»ÐµÐ½Ð½Ð¾"
      ],
      [
        "ĠÐ¼Ð¾Ð»Ð¾Ð´",
        "Ð¾Ð¹"
      ],
      [
        "ĠÐ±Ð¾ÑĢ",
        "Ð¾Ð´"
      ],
      [
        "ĠÑģ",
        "Ð¾ÑĢ"
      ],
      [
        "ĠÐ±ÐµÑģ",
        "Ñģ"
      ],
      [
        "ĠÐ¡ÑĤÐµÐ¿",
        "Ð°Ð½"
      ],
      [
        "ÑĨ",
        "Ð°Ð¼Ð¸"
      ],
      [
        "ĠÐ·Ð½Ð°",
        "ÐµÑĪÑĮ"
      ],
      [
        "ĠÐ¸",
        "ÑģÑĤ"
      ],
      [
        "ĠÐĵ",
        "Ð¾ÑĢ"
      ],
      [
        "ĠÐĴ",
        "Ñģ"
      ],
      [
        "ĠÐ³Ð»Ð°Ð·",
        "Ð°Ñħ"
      ],
      [
        "ĠÐ¿ÑĢÐ¸Ð½",
        "Ð¸Ð¼"
      ],
      [
        "ĠÑħÐ¾ÑĤÐµÐ»",
        "Ð¾ÑģÑĮ"
      ],
      [
        "ĠÐ½",
        "Ð°Ð¹"
      ],
      [
        "ĠÐ½ÐµÐ¼",
        "Ð½Ð¾Ð³Ð¾"
      ],
      [
        "ĠÑĪ",
        "Ð»Ñı"
      ],
      [
        "ĠÐ¿ÑĢÐµÐ´",
        "Ð»Ð¾Ð¶"
      ],
      [
        "Ñĥ",
        "ÑĢÐ°"
      ],
      [
        "ĠÑĪÐ¸ÑĢ",
        "Ð¾Ðº"
      ],
      [
        "Ð¾Ð·",
        "Ð¼"
      ],
      [
        "ĠÐ¿ÑĢÐ°Ð²",
        "Ð´Ð°"
      ],
      [
        "ĠÐ¾Ð±ÑĬ",
        "ÑıÑģÐ½"
      ],
      [
        "Ð¾Ð¼",
        "Ð°"
      ],
      [
        "ĠÐ²ÐµÑĢ",
        "Ñħ"
      ],
      [
        "Ð½",
        "Ð¸Ñı"
      ],
      [
        "ĠÐĵ",
        "Ð¾Ñģ"
      ],
      [
        "ĠÐ»Ð°Ñģ",
        "ÐºÐ¾Ð²"
      ],
      [
        "ÑĥÑĤ",
        "ÑĥÐ·"
      ],
      [
        "ĠÐ°",
        "Ðº"
      ],
      [
        "ĠÐľ",
        "Ð¸ÑĤ"
      ],
      [
        "ĠÑĢÐ°Ð·",
        "ÑĥÐ¼"
      ],
      [
        "Ð",
        "§"
      ],
      [
        "Ð¾Ð¶",
        "ÐµÑĤ"
      ],
      [
        "ÑĤ",
        "Ð¾Ð¼"
      ],
      [
        "ÐµÐ´",
        "Ð¸Ð½"
      ],
      [
        "ĠÑĢÐ°Ð·",
        "Ð´ÑĢ"
      ],
      [
        "Ðº",
        "Ð½ÑĥÐ»"
      ],
      [
        "Ð°ÑĢ",
        "Ð°"
      ],
      [
        "Ð½",
        "Ð°ÐºÐ¾Ð¼"
      ],
      [
        "ĠÐĽÐµÐ²",
        "Ð¸Ð½"
      ],
      [
        "ÐµÑĤ",
        "Ñĭ"
      ],
      [
        "ĠÐ½",
        "Ð°Ð·ÑĭÐ²"
      ],
      [
        "ÑĢÐµÐ¼",
        "ÐµÐ½Ð½Ð¾"
      ],
      [
        "ĠÐ¯",
        "ÐºÐ¾Ð²"
      ],
      [
        "Ñİ",
        "ÑĢ"
      ],
      [
        "ĠÐ´ÑĥÐ¼",
        "Ð°Ñİ"
      ],
      [
        "ĠÐĳ",
        "Ð¾ÑĢ"
      ],
      [
        "ĠÑĦ",
        "Ð¸Ð³"
      ],
      [
        "ÑĭÑĩ",
        "Ð°Ð¹"
      ],
      [
        "ĠÐ¾Ðº",
        "Ð°Ð·"
      ],
      [
        "ĠÑģ",
        "Ð¾ÑĤ"
      ],
      [
        "ĠÐ±Ð»",
        "Ð°Ð³Ð¾"
      ],
      [
        "ĠÐ½",
        "Ð¸Ð·"
      ],
      [
        "ĠÑģ",
        "ÐµÑĢÑĮÐµÐ·"
      ],
      [
        "ÑĨ",
        "Ð¾Ð²"
      ],
      [
        "Ð°Ð¼",
        "Ð¿"
      ],
      [
        "ĠÑģÑĤ",
        "ÐµÐ¿"
      ],
      [
        "ĠÑģÐ¼",
        "ÐµÑħ"
      ],
      [
        "ĠÐ¿Ð¾Ð´",
        "Ð½Ð¸Ð¼"
      ],
      [
        "ĠÐ¿Ð¾Ð½Ð¸Ð¼",
        "Ð°Ñİ"
      ],
      [
        "ĠÐ±ÑĥÐ¼",
        "Ð°Ð³"
      ],
      [
        "ĠÐ¿",
        "ÐµÑģ"
      ],
      [
        "ĠÐ¾",
        "Ñī"
      ],
      [
        "ĠÐ¸Ñģ",
        "ÑĤÐ¾ÑĢ"
      ],
      [
        "Ð¾Ð²",
        "Ð½Ð°"
      ],
      [
        "ÐµÑģÑĤ",
        "Ð½Ð¾"
      ],
      [
        "ĠÐ³Ð¾Ð²Ð¾ÑĢ",
        "ÑıÑĤ"
      ],
      [
        "ĠÐºÐ¾Ð¼",
        "Ð°Ð½Ð´"
      ],
      [
        "Ð¾Ð»",
        "Ðµ"
      ],
      [
        "ĠÐ´ÑĢÑĥÐ³",
        "Ð¸Ñħ"
      ],
      [
        "ĠÑĥ",
        "ÑħÐ¾Ð´"
      ],
      [
        "ĠÐļ",
        "ÑĥÑĤÑĥÐ·"
      ],
      [
        "ĠÐºÑĢ",
        "ÐµÑģ"
      ],
      [
        "Ð¸Ð¶",
        "Ðµ"
      ],
      [
        "Ð¸",
        "ÑĦ"
      ],
      [
        "ĠÐºÐ²Ð°ÑĢ",
        "ÑĤÐ¸ÑĢ"
      ],
      [
        "ĠÑģ",
        "Ð¾Ð±ÑĢ"
      ],
      [
        "ĠÐ¿Ð¾",
        "ÑĨ"
      ],
      [
        "ĠÑĢÑĥ",
        "ÐºÐ°Ñħ"
      ],
      [
        "ĠÐ²Ð¿",
        "Ð¾Ð»"
      ],
      [
        "Ð¸Ð±",
        "Ð¾"
      ],
      [
        "ĠÐ¾ÑģÑĤÐ°Ð½Ð¾Ð²",
        "Ð¸Ð»ÑģÑı"
      ],
      [
        "ĠÑĢ",
        "Ð¾Ð·"
      ],
      [
        "ĠÑħ",
        "ÑĥÐ´"
      ],
      [
        "ĠÐĶÐ°Ð²ÑĭÐ´",
        "Ð¾Ð²"
      ],
      [
        "ĠÑģ",
        "ÐµÐ´"
      ],
      [
        "ĠÐ²",
        "Ð¾ÑĪÐµÐ»"
      ],
      [
        "ĠÐ¿ÑĢÐ¾",
        "Ñī"
      ],
      [
        "ĠÐ¸Ñģ",
        "Ñĩ"
      ],
      [
        "ĠÑĢ",
        "ÐµÐ´"
      ],
      [
        "Ðº",
        "Ñģ"
      ],
      [
        "ĠÐ¼",
        "Ð°Ñģ"
      ],
      [
        "ĠÑģ",
        "ÑħÐ²Ð°ÑĤ"
      ],
      [
        "ĠÐ±",
        "Ð°Ð»"
      ],
      [
        "ĠÐ¾Ð¿",
        "ÑĥÑģÑĤ"
      ],
      [
        "ĠÐ¾Ð±",
        "ÑĭÐºÐ½Ð¾Ð²"
      ],
      [
        "Ð°Ð²",
        "ÑĢ"
      ],
      [
        "ĠÑħÐ»",
        "ÐµÐ±"
      ],
      [
        "ĠÐ¼",
        "Ð°Ð¼"
      ],
      [
        "ĠÐ¿Ð¾Ð·",
        "Ð´"
      ],
      [
        "ĠÐ³ÑĥÐ±",
        "Ñĭ"
      ],
      [
        "Ð»Ñİ",
        "Ð±"
      ],
      [
        "Ð°Ð²",
        "Ð°Ð»"
      ],
      [
        "ĠÑģ",
        "Ð¾Ñĩ"
      ],
      [
        "ĠÐµÐ´",
        "Ð¸Ð½"
      ],
      [
        "ĠÐłÐ¾ÑģÑĤ",
        "Ð¾Ð²"
      ],
      [
        "Ð²",
        "Ð¸Ð³"
      ],
      [
        "ĠÐ½Ðµ",
        "Ð¾Ð¶Ð¸Ð´"
      ],
      [
        "ĠÑģÐ²",
        "ÑıÐ·"
      ],
      [
        "Ð¾Ñħ",
        "Ð¾ÑĤ"
      ],
      [
        "ĠÑĤ",
        "ÐµÑĤ"
      ],
      [
        "ĠÐ¼",
        "Ð¾Ð½"
      ],
      [
        "ĠÐĽ",
        "Ð¸Ð´"
      ],
      [
        "ĠÐľÐ¸Ñħ",
        "Ð°Ð¹"
      ],
      [
        "Ñĥ",
        "ÐºÐ¸"
      ],
      [
        "ĠÐ½Ð°Ñģ",
        "ÑĤÐ¾"
      ],
      [
        "ÑĢ",
        "Ð°Ð¼"
      ],
      [
        "ÐµÑĢ",
        "Ñģ"
      ],
      [
        "ĠÐ´ÑĢÑĥÐ³",
        "Ð°"
      ],
      [
        "ĠÐ²",
        "ÑģÑĤ"
      ],
      [
        "ÑģÐº",
        "Ð¾Ðµ"
      ],
      [
        "Ð¾Ð»",
        "Ð²"
      ],
      [
        "Ð¾Ð»ÑĮ",
        "ÑĤÐµ"
      ],
      [
        "ĠÑģÐ²",
        "ÐµÑĢ"
      ],
      [
        "ĠÐ¿ÑĢ",
        "ÐµÐ·"
      ],
      [
        "ĠÐ´Ð¾Ð¼",
        "Ðµ"
      ],
      [
        "ĠÐĿÐ°ÑĤ",
        "Ð°ÑĪÐ°"
      ],
      [
        "ĠÑģÑĤ",
        "ÐµÐº"
      ],
      [
        "ĠÐĶÐ¼",
        "Ð¸ÑĤÑĢ"
      ],
      [
        "ĠÑĥÑģÐ¼",
        "ÐµÑħ"
      ],
      [
        "ĠÑĥÐ´",
        "Ð¾Ð²Ð¾Ð»ÑĮ"
      ],
      [
        "Ð¸Ð²ÑĪ",
        "Ð¸Ð¹"
      ],
      [
        "ĠÑĢÐ°Ð·Ð´ÑĢ",
        "Ð°Ð¶"
      ],
      [
        "Ð¾Ñģ",
        "Ð¾Ð±"
      ],
      [
        "ÑĢ",
        "Ð¾Ðº"
      ],
      [
        "ĠÑĥÐ»ÑĭÐ±",
        "ÐºÐ¾Ð¹"
      ],
      [
        "Ð¾Ð²Ð¾ÑĢ",
        "Ð¸Ð»Ð°"
      ],
      [
        "ĠÐ²",
        "Ð¸Ð½Ð¾Ð²"
      ],
      [
        "ĠÐ·Ð°",
        "ÑģÑĤ"
      ],
      [
        "ĠÐ¾Ð³",
        "ÑĢÐ¾Ð¼"
      ],
      [
        "ĠÑģ",
        "ÑĢÐ°Ð·Ñĥ"
      ],
      [
        "Ð½Ñİ",
        "Ñİ"
      ],
      [
        "ĠÐŀÑĢ",
        "ÑĤÑĢ"
      ],
      [
        "ĠÐ¼",
        "ÐµÑĩ"
      ],
      [
        "ĠÑģÐ»ÑĭÑĪ",
        "Ð°Ð»"
      ],
      [
        "ĠÐ¿",
        "Ð¾Ð¹Ð´"
      ],
      [
        "ĠÐ¼",
        "ÐµÑģÑĤÐµ"
      ],
      [
        "ĠÑĢ",
        "Ð°Ð²Ð½Ð¾"
      ],
      [
        "ĠÐ·Ð½Ð°",
        "ÑĩÐ¸ÑĤ"
      ],
      [
        "ĠÐ³ÑĢÑĥÐ´",
        "Ð¸"
      ],
      [
        "ĠÐ¿ÑĢ",
        "ÐµÐ²"
      ],
      [
        "ĠÐ²ÐµÑģ",
        "ÐµÐ»Ð¾"
      ],
      [
        "ĠÐ¿Ð¾",
        "ÑģÑĤÐ°Ð²"
      ],
      [
        "ĠÐ¿Ð¾",
        "ÑģÑĤÑĥÐ¿"
      ],
      [
        "ĠÐ¤ÐµÐ´",
        "Ð¾ÑĢÐ¾Ð²"
      ],
      [
        "ĠÐ»ÑİÐ±",
        "Ð¾Ð¿ÑĭÑĤ"
      ],
      [
        "ÑĤÐ¾",
        "Ðµ"
      ],
      [
        "ĠÐ½ÐµÐ¿",
        "Ð¾Ð´"
      ],
      [
        "ĠÑģÐ»ÑĥÑĩ",
        "Ð°"
      ],
      [
        "ĠÐ¼",
        "ÐµÐ»ÑĮ"
      ],
      [
        "ĠÑĤ",
        "Ð²"
      ],
      [
        "ĠÐŁ",
        "Ð¾Ñĩ"
      ],
      [
        "ĠÐŁÐµÑĢÐµÐ´",
        "Ð¾Ð½Ð¾Ð²"
      ],
      [
        "ÐµÑĢÐ±",
        "ÑĥÑĢÐ³"
      ],
      [
        "Ðº",
        "Ð¸Ð½"
      ],
      [
        "ĠÐ¿ÑĢ",
        "Ð¾Ð½"
      ],
      [
        "ĠÑĥÐ³",
        "ÑĢ"
      ],
      [
        "ĠÐ´Ð¾Ñģ",
        "Ð°Ð´"
      ],
      [
        "Ð¾ÑĢ",
        "ÑĤ"
      ],
      [
        "Ð·",
        "ÑĮ"
      ],
      [
        "ĠÑģÐº",
        "ÑĥÑĩ"
      ],
      [
        "Ð½Ñı",
        "Ñı"
      ],
      [
        "ĠÐ´Ð²",
        "ÐµÑĢ"
      ],
      [
        "ĠÑģÑĭ",
        "Ð½"
      ],
      [
        "ĠÐĴÐ°ÑĢÐ²Ð°ÑĢ",
        "Ð°"
      ],
      [
        "ĠÐºÐ°ÑĢ",
        "ÑĤ"
      ],
      [
        "ĠÐĵ",
        "Ð»"
      ],
      [
        "ĠÐºÑĢ",
        "ÑĭÐ»ÑĮ"
      ],
      [
        "ĠÐºÐ°Ð¶Ð´",
        "ÑĭÐ¹"
      ],
      [
        "Ð°ÑĤ",
        "Ð°"
      ],
      [
        "ĠÐ´",
        "ÐµÐ½"
      ],
      [
        "ĠÐ¿Ð¾ÑĢ",
        "ÑıÐ´"
      ],
      [
        "ĠÐ¾Ð±",
        "Ñī"
      ],
      [
        "ĠÐµÐ´",
        "Ð²Ð°"
      ],
      [
        "Ð°Ð½",
        "Ñĥ"
      ],
      [
        "ÑĢÑĭ",
        "Ð»"
      ],
      [
        "ĠÑģÐºÐ²",
        "Ð¾Ð·ÑĮ"
      ],
      [
        "ĠÑģÐ²Ð¾",
        "Ð¸Ð¼Ð¸"
      ],
      [
        "ĠÐ³Ð¾ÑĢ",
        "Ð´"
      ],
      [
        "ÑĥÑħ",
        "Ð°"
      ],
      [
        "ĠÐ½ÐµÐ¾Ð±",
        "ÑħÐ¾Ð´"
      ],
      [
        "ĠÐºÐ¾ÑĤÐ¾ÑĢ",
        "ÑĭÐ¼"
      ],
      [
        "ÐĶ",
        "Ð°"
      ],
      [
        "Ñĭ",
        "Ð³"
      ],
      [
        "Ðº",
        "Ð¾Ð»ÑĮ"
      ],
      [
        "ĠÐ»ÑİÐ±",
        "Ð²Ð¸"
      ],
      [
        "ĠÐķ",
        "Ð¼Ñĥ"
      ],
      [
        "ĠÐ»ÑİÐ±",
        "Ð»Ñİ"
      ],
      [
        "ĠÐĲÐ»ÐµÐº",
        "ÑģÐµ"
      ],
      [
        "ĠÐ¢",
        "Ð¾"
      ],
      [
        "ĠÐĵ",
        "ÑĢÐ°ÑĦ"
      ],
      [
        "ĠÐ·Ð°Ð³",
        "Ð¾Ð²Ð¾ÑĢÐ¸Ð»"
      ],
      [
        "ĠÐ¿Ð¾ÑģÐ¿",
        "ÐµÑĪ"
      ],
      [
        "ÐµÐ½",
        "Ð½ÑĭÐ¼Ð¸"
      ],
      [
        "ĠÐ¿Ð¾ÑģÐ¼Ð¾ÑĤÑĢ",
        "ÐµÐ»"
      ],
      [
        "ĠÑĤÐ°Ðº",
        "Ð°Ñı"
      ],
      [
        "ĠÐ´ÑĥÐ¼",
        "Ð°ÑĤÑĮ"
      ],
      [
        "Ð¸Ð²",
        "Ð°Ð»ÑģÑı"
      ],
      [
        "ĠÐ¼Ð¾",
        "Ñİ"
      ],
      [
        "ĠÐ²Ð¾Ð»",
        "Ð½"
      ],
      [
        "ĠÑĢÐ°Ð·Ð²",
        "Ðµ"
      ],
      [
        "ĠÐ¸Ð´",
        "ÑĤÐ¸"
      ],
      [
        "ĠÑħÑĥ",
        "ÑĤÐ¾ÑĢ"
      ],
      [
        "ĠÐ²Ð¾Ð²",
        "ÑģÐµ"
      ],
      [
        "ĠÐ¸ÑģÑĩ",
        "ÐµÐ·"
      ],
      [
        "ĠÐ¿Ð¾Ð·",
        "Ð²Ð¾Ð»"
      ],
      [
        "ĠÐ´",
        "Ð¾Ð¶Ð´"
      ],
      [
        "ĠÐ²Ñĭ",
        "ÑģÐº"
      ],
      [
        "ĠÐ»",
        "Ð¾Ð¶"
      ],
      [
        "Ð»",
        "ÐµÑĩ"
      ],
      [
        "ĠÐ²Ñĭ",
        "Ðº"
      ],
      [
        "ĠÑĢÐµÐ±",
        "ÐµÐ½"
      ],
      [
        "ĠÐ²Ð¿",
        "ÑĢÐ¾Ñĩ"
      ],
      [
        "ĠÐ²Ð¿ÑĢÐ¾Ñĩ",
        "ÐµÐ¼"
      ],
      [
        "ĠÐ¿",
        "Ð°Ð»"
      ],
      [
        "ĠÑģÐ°Ð¼",
        "Ð¾Ðµ"
      ],
      [
        "ĠÐĹ",
        "Ð½Ð°"
      ],
      [
        "ĠÑģÐ¾",
        "Ð¾Ð±Ñī"
      ],
      [
        "Ð¸ÑĩÐµÑģÐº",
        "Ð¸"
      ],
      [
        "ĠÑĪÐ»Ñı",
        "Ð¿"
      ],
      [
        "ĠÑģÑĤÑĢ",
        "Ð°Ð´"
      ],
      [
        "ĠÑħÐ»",
        "Ð¾Ð¿"
      ],
      [
        "ĠÑĩ",
        "Ð¸ÑģÑĤ"
      ],
      [
        "ĠÑĢ",
        "Ð¾ÑĤ"
      ],
      [
        "ĠÐ¿Ð¾Ð»",
        "Ñĥ"
      ],
      [
        "ĠÐ¸Ð·Ð¼",
        "ÐµÐ½"
      ],
      [
        "ÑģÑĤÐ²",
        "Ð¸Ñı"
      ],
      [
        "ĠÐ½Ð°Ð²",
        "ÐµÑĢ"
      ],
      [
        "ĠÐ½",
        "ÐµÑĢ"
      ],
      [
        "ĠÐ²Ð¾Ð·",
        "ÑĮ"
      ],
      [
        "ĠÐ»ÐµÐ³",
        "ÐºÐ¾"
      ],
      [
        "ĠÑĤ",
        "ÑĥÐ´Ð°"
      ],
      [
        "ĠÐĲÑĢ",
        "Ðº"
      ],
      [
        "ĠÐ¼ÐµÑģÑĤ",
        "Ð°"
      ],
      [
        "ĠÑģÐ´ÐµÐ»",
        "Ð°Ð»"
      ],
      [
        "ĠÑĤÐ¾Ð±",
        "Ð¾Ð¹"
      ],
      [
        "Ð°Ñİ",
        "ÑģÑĮ"
      ],
      [
        "ĠÐ³Ð¾ÑģÑĥÐ´",
        "Ð°ÑĢ"
      ],
      [
        "ĠÐ¿Ð¾Ð´",
        "Ð¾Ð±"
      ],
      [
        "ĠÐ¾ÑĤÐ²",
        "Ð¾ÑĢ"
      ],
      [
        "ĠÐ¾Ð±",
        "Ð¾"
      ],
      [
        "ĠÑįÑĤ",
        "Ð¾Ð¼Ñĥ"
      ],
      [
        "Ð°Ð²ÑĪ",
        "Ð¸Ðµ"
      ],
      [
        "ĠÐ´ÑĢ",
        "ÑĥÐ³Ð¾"
      ],
      [
        "ĠÐ¿Ð¾",
        "ÑıÐ²"
      ],
      [
        "ĠÐ¾ÑĤÑĩ",
        "Ð°Ñı"
      ],
      [
        "Ð¼Ñĥ",
        "ÑĢ"
      ],
      [
        "Ð¾",
        "ÑıÑĤÐ½Ð¾"
      ],
      [
        "ĠÐ¶",
        "Ð¸Ð»"
      ],
      [
        "ĠÐ¶",
        "Ð°ÑĢ"
      ],
      [
        "ĠÑħÐ¾Ñĩ",
        "ÐµÑĤ"
      ],
      [
        "ĠÐ²Ð½",
        "Ð¸Ð·"
      ],
      [
        "ĠÑıÑģ",
        "Ð½Ð¾"
      ],
      [
        "ĠÐ»",
        "ÐµÑģÑĤ"
      ],
      [
        "ĠÐºÐ°Ð±",
        "Ð¸Ð½"
      ],
      [
        "Ð¸ÑĢ",
        "Ð¾Ð´"
      ],
      [
        "ĠÐ½Ð°Ð¿",
        "Ð¸Ñģ"
      ],
      [
        "ĠÐĲÐ»ÐµÐºÑģ",
        "ÐµÐ¹"
      ],
      [
        "ĠÐ¾Ñģ",
        "ÑĤÐ¾ÑĢ"
      ],
      [
        "Ð¾Ð»",
        "Ñİ"
      ],
      [
        "ĠÑģÐ»",
        "Ð°Ð²"
      ],
      [
        "ĠÐ´ÑĢÑĥÐ³",
        "Ð¸Ðµ"
      ],
      [
        "ĠÐ¿ÑĢ",
        "Ð¸Ð¶"
      ],
      [
        "ÑİÑĪ",
        "ÐºÐ°"
      ],
      [
        "ÑıÑĤ",
        "ÑģÑı"
      ],
      [
        "ĠÐ¿Ð¾ÑĤ",
        "ÐµÑĢ"
      ],
      [
        "ĠÐĿÐµÑħÐ»ÑİÐ´",
        "Ð¾Ð²"
      ],
      [
        "ÑĢ",
        "ÐµÐ±"
      ],
      [
        "ĠÐ¿",
        "Ð°Ð¼"
      ],
      [
        "Ñĭ",
        "ÑģÐ»"
      ],
      [
        "ĠÑĤ",
        "Ð¾Ð¿"
      ],
      [
        "ĠÐ±Ð¾Ð»",
        "ÐµÐ·"
      ],
      [
        "ĠÐ¿ÑĢÐ¸ÑĪ",
        "ÐµÐ»"
      ],
      [
        "Ñĭ",
        "ÑģÐº"
      ],
      [
        "ĠÐ²Ñĩ",
        "ÐµÑĢÐ°"
      ],
      [
        "Ð³",
        "Ð»"
      ],
      [
        "ĠÐ±Ð»Ð°Ð³",
        "Ð¾Ð´Ð°ÑĢ"
      ],
      [
        "Ð°Ð½",
        "Ð½Ð¾Ð¹"
      ],
      [
        "ĠÐ·Ð²",
        "Ð¾Ð½"
      ],
      [
        "ĠÐ·ÐµÐ¼",
        "Ð»Ñİ"
      ],
      [
        "ÑĪ",
        "Ð¸Ð±"
      ],
      [
        "Ð°Ð²ÑĪ",
        "Ð¸Ñħ"
      ],
      [
        "ÑĥÐ½",
        "Ð´"
      ],
      [
        "ĠÐºÐ½ÑıÐ·",
        "Ñı"
      ],
      [
        "Ġ",
        "."
      ],
      [
        "Ð²",
        "Ð¸Ð´"
      ],
      [
        "ĠÐ²",
        "ÑħÐ¾Ð´"
      ],
      [
        "ĠÐ±",
        "Ð¾Ðº"
      ],
      [
        "ĠÑĤÐ°Ðº",
        "Ð¸Ñħ"
      ],
      [
        "ĠÐ¿Ð¾Ð»",
        "Ð¾Ð²"
      ],
      [
        "Ð°Ð¼",
        "ÐµÐ½"
      ],
      [
        "ĠÐ±",
        "ÑĥÑĢ"
      ],
      [
        "ĠÐ·",
        "ÐµÐ»ÐµÐ½"
      ],
      [
        "Ñī",
        "Ð¸Ðº"
      ],
      [
        "ĠÐ»",
        "Ð¾Ð²"
      ],
      [
        "ĠÐ°",
        "Ð´"
      ],
      [
        "ĠÑĩÐµÑĢ",
        "ÑĤ"
      ],
      [
        "ĠÑģÐ¼ÐµÑĢ",
        "ÑĤÐ¸"
      ],
      [
        "ĠÑģ",
        "Ð¶"
      ],
      [
        "ĠÐĿ",
        "Ð°Ðº"
      ],
      [
        "ĠÐ¾Ðº",
        "ÑĢÑĥÐ¶"
      ],
      [
        "ĠÑģÐ¾Ñģ",
        "ÐµÐ´"
      ],
      [
        "Ð°Ðº",
        "ÑĤ"
      ],
      [
        "ĠÐ¥",
        "ÑĢ"
      ],
      [
        "ĠÐ½ÐµÑģ",
        "ÑĩÐ°ÑģÑĤ"
      ],
      [
        "ĠÑģÐ¿Ð¾ÐºÐ¾Ð¹",
        "Ð½Ð¾"
      ],
      [
        "ĠÐ²Ð¾Ñģ",
        "ÑĤÐ¾ÑĢ"
      ],
      [
        "ĠÐ±",
        "ÑĢÐ¾Ð²"
      ],
      [
        "Ð¾Ð»",
        "Ñı"
      ],
      [
        "ĠÐ¿Ð¾Ð´",
        "Ð¿"
      ],
      [
        "ÑĢÐµÐ´",
        "ÐµÐ»"
      ],
      [
        "ĠÐ´Ð¾Ðº",
        "ÑĤÐ¾ÑĢ"
      ],
      [
        "ĠÐ³ÑĢÐ¾Ð¼",
        "ÐºÐ¾"
      ],
      [
        "ĠÑĤ",
        "Ð¸ÑĪ"
      ],
      [
        "ĠÐ¼",
        "Ð½Ð¾Ñİ"
      ],
      [
        "ÑĢ",
        "ÑĥÑĪ"
      ],
      [
        "Ð»",
        "ÐµÐ½Ð¸ÐµÐ¼"
      ],
      [
        "Ð¾Ð·",
        "ÑĢ"
      ],
      [
        "ĠÑĤÐ°Ðº",
        "Ð¾Ð³Ð¾"
      ],
      [
        "ĠÑģÑĤÑĢÐ°Ð½",
        "Ð½Ð¾"
      ],
      [
        "ĠÐĽ",
        "Ð¾Ð³"
      ],
      [
        "ĠÐ·Ð°ÑĤ",
        "ÐµÐ¼"
      ],
      [
        "ĠÐļÐ½Ñı",
        "Ð·ÑĮ"
      ],
      [
        "ĠÑĨ",
        "Ð°ÑĢ"
      ],
      [
        "ÐµÐ»",
        "ÑģÑı"
      ],
      [
        "ĠÐ±Ð¾Ð³",
        "Ð°ÑĤ"
      ],
      [
        "ĠÑģÐ¿",
        "Ð°Ñģ"
      ],
      [
        "Ð°Ñĩ",
        "ÐµÐ¼"
      ],
      [
        "Ð»",
        "Ð°ÑĤ"
      ],
      [
        "ĠÐ¾Ð±",
        "Ð¸Ð´"
      ],
      [
        "ĠÐ¿Ð¾Ð½",
        "ÑıÑĤÑĮ"
      ],
      [
        "ĠÑģÐ²",
        "ÐµÑĤÐµ"
      ],
      [
        "ĠÑĤÐµÐ¼",
        "Ð½Ð¾"
      ],
      [
        "Ð½Ð¸Ðº",
        "Ð¾Ð¼"
      ],
      [
        "ĠÑĩÐµÐ»Ð¾Ð²",
        "ÐµÑĩ"
      ],
      [
        "ĠÑģÐ»ÑĥÑĩ",
        "Ð°Ð¹"
      ],
      [
        "ĠÐ³ÑĢ",
        "ÑıÐ·"
      ],
      [
        "ĠÑģÑĤ",
        "ÑĭÐ´"
      ],
      [
        "ĠÐ´",
        "Ð¾Ð½"
      ],
      [
        "ĠÑĤ",
        "Ð°Ð¹"
      ],
      [
        "ĠÑģÐ°Ð¼",
        "Ð¾Ð¹"
      ],
      [
        "ĠÐ²Ð¾Ðº",
        "ÑĢÑĥÐ³"
      ],
      [
        "ĠÐ¿Ð¾Ð¼",
        "Ð½"
      ],
      [
        "ĠÐ´ÑĥÑĪ",
        "Ðµ"
      ],
      [
        "ĠÐ²Ñģ",
        "ÐµÐ¹"
      ],
      [
        "ĠÐ¿Ð¾Ð´",
        "Ð±"
      ],
      [
        "ÑĨ",
        "ÐµÐ½"
      ],
      [
        "ĠÐł",
        "Ð¾ÑģÑģ"
      ],
      [
        "ĠÐ¿Ð¾Ð·",
        "Ð²"
      ],
      [
        "ĠÐ²",
        "ÐµÐ´"
      ],
      [
        "ĠÐ¾",
        "Ð²"
      ],
      [
        "ĠÑģÑĤÐ¾",
        "Ð¸ÑĤ"
      ],
      [
        "ĠÐĺÐ²Ð°Ð½Ð¾Ð²",
        "Ð½Ð°"
      ],
      [
        "ĠÑģÑĢÐµÐ´",
        "Ð¸"
      ],
      [
        "ÑĪ",
        "Ð¸Ð¼"
      ],
      [
        "Ð´",
        "Ð¸"
      ],
      [
        "ĠÐºÑĢÐ°Ñģ",
        "Ð¸Ð²"
      ],
      [
        "ÑĪ",
        "Ð°"
      ],
      [
        "ÐµÐ½ÑĮ",
        "Ðµ"
      ],
      [
        "ĠÑĥÐ²Ð¸Ð´",
        "ÐµÐ»"
      ],
      [
        "ĠÐ³ÑĢ",
        "ÑĥÐ±"
      ],
      [
        "ÑĢ",
        "Ð¾Ð±"
      ],
      [
        "ĠÐĴÐ°Ñģ",
        "Ð¸Ð»ÑĮ"
      ],
      [
        "ĠÐ¿",
        "Ð°Ð´"
      ],
      [
        "Ð¾Ð²",
        "ÑĭÐ¼"
      ],
      [
        "ĠÐŁ",
        "Ð½"
      ],
      [
        "ÑĨ",
        "Ð¸"
      ],
      [
        "ĠÑĥÐ¼",
        "ÐµÑĢ"
      ],
      [
        "ĠÐ²",
        "Ð¸Ð¶Ñĥ"
      ],
      [
        "ĠÐ±ÑĥÐ´",
        "ÑĥÑĤ"
      ],
      [
        "ĠÑħÐ¾ÑĤ",
        "ÐµÐ»Ð°"
      ],
      [
        "ĠÑģÐ½",
        "ÐµÐ³"
      ],
      [
        "ĠÑĩÐ°Ñģ",
        "Ð¾Ð²"
      ],
      [
        "Ð¾ÑĤ",
        "Ñĥ"
      ],
      [
        "ĠÐ½ÐµÑģ",
        "Ð¼Ð¾ÑĤÑĢÑı"
      ],
      [
        "ĠÐ½",
        "ÑĭÐ½"
      ],
      [
        "ÑĥÑİ",
        "ÑĤ"
      ],
      [
        "ĠÑģÐ»ÑĥÑĩÐ°",
        "Ðµ"
      ],
      [
        "Ð¼",
        "ÐµÑĪ"
      ],
      [
        "ĠÐº",
        "Ð¾ÑģÑĤ"
      ],
      [
        "ĠÑģÑĤ",
        "ÑĥÐ¿"
      ],
      [
        "ĠÑĩ",
        "ÐµÐ¼Ñĥ"
      ],
      [
        "ĠÑĪ",
        "Ð°ÑĢ"
      ],
      [
        "ĠÐ¿ÑĢÐ¾",
        "Ð¸Ñģ"
      ],
      [
        "ĠÐ³Ð¾ÑģÐ¿Ð¾Ð´",
        "Ð¸Ð½"
      ],
      [
        "ÑģÐº",
        "Ð¾Ð¼Ñĥ"
      ],
      [
        "ĠÑģÐ»ÐµÐ·",
        "Ñĭ"
      ],
      [
        "ĠÐºÐ½Ñı",
        "Ð¶"
      ],
      [
        "ĠÐ´",
        "Ð¾Ð¿"
      ],
      [
        "ĠÐĿ",
        "Ð°ÑģÑĤ"
      ],
      [
        "ĠÐ¿Ð¾Ð»",
        "ÐºÐ¾Ð²"
      ],
      [
        "ĠÐĿÐ¸ÐºÐ¾Ð»",
        "Ð°"
      ],
      [
        "ĠÐ»ÑİÐ±Ð¾Ð²",
        "ÑĮ"
      ],
      [
        "Ð¼",
        "ÐµÑĢ"
      ],
      [
        "ĠÐ²Ñĭ",
        "Ð¹"
      ],
      [
        "ĠÐ¿Ð¾Ð½",
        "ÑıÐ»"
      ],
      [
        "ĠÑģÑĭ",
        "Ð½Ð°"
      ],
      [
        "ĠÐ±Ð¾Ð»ÑĮÑĪ",
        "Ð¾Ð¹"
      ],
      [
        "ĠÐŁÐ¾Ñģ",
        "Ð»Ðµ"
      ],
      [
        "ĠÐ¶ÐµÐ½",
        "Ð°"
      ],
      [
        "Ð°Ð³Ð¾ÑĢ",
        "Ð¾Ð´"
      ],
      [
        "Ð½Ð¸ÑĨ",
        "Ñĥ"
      ],
      [
        "ĠÐ¿Ð»",
        "Ð°Ðº"
      ],
      [
        "ĠÐĿÐ°ÑĤ",
        "Ð°Ð»ÑĮ"
      ],
      [
        "Ð¾Ð¼",
        "Ð°Ð½"
      ],
      [
        "ÑĨ",
        "Ð¸Ñı"
      ],
      [
        "ĠÐ¾ÑĤ",
        "Ñģ"
      ],
      [
        "ĠÐ¾Ð±",
        "Ðµ"
      ],
      [
        "ĠÐĵ",
        "Ð´Ðµ"
      ],
      [
        "ĠÐ½Ð°Ñĩ",
        "Ð°Ð»ÑĮ"
      ],
      [
        "Ð¾ÑĢÐ¾ÑĪ",
        "Ð¾"
      ],
      [
        "ĠÐ»",
        "Ð¸Ñĩ"
      ],
      [
        "ĠÐº",
        "Ð°Ñĩ"
      ],
      [
        "ĠÐ¿Ð¾Ðº",
        "Ð»Ð¾Ð½"
      ],
      [
        "ĠÐ²Ð¾",
        "Ð¾Ð±ÑīÐµ"
      ],
      [
        "ĠÑĤÑıÐ¶",
        "ÐµÐ»Ð¾"
      ],
      [
        "ĠÑĩÐµÑĤ",
        "Ð²ÐµÑĢ"
      ],
      [
        "ĠÐ·Ð¾Ð»",
        "Ð¾ÑĤ"
      ],
      [
        "ĠÑģ",
        "Ð¼ÑĥÑī"
      ],
      [
        "ĠÑĢÐ°Ð±",
        "Ð¾Ñĩ"
      ],
      [
        "ĠÐ±Ñĭ",
        "ÑģÑĤÑĢ"
      ],
      [
        "ĠÐŀ",
        "Ñĩ"
      ],
      [
        "ĠÐĶ",
        "Ñĥ"
      ],
      [
        "Ð¸Ñĩ",
        "Ð°"
      ],
      [
        "ÑĮ",
        "ÑĤÐµ"
      ],
      [
        "ĠÐ¿Ð¾Ñģ",
        "ÑĤÐ¾"
      ],
      [
        "ĠÑģÐ²Ð¾",
        "ÐµÐ¼Ñĥ"
      ],
      [
        "ĠÐ´Ð°Ð»ÑĮ",
        "ÑĪÐµ"
      ],
      [
        "ĠÑĢ",
        "ÑĥÑĩ"
      ],
      [
        "Ð·",
        "Ð´"
      ],
      [
        "ĠÑĢ",
        "ÐµÐº"
      ],
      [
        "ĠÐ¿Ð¾Ñĩ",
        "ÑĤ"
      ],
      [
        "ĠÑģÑĤÐ¾Ð»",
        "Ð°"
      ],
      [
        "ĠÑģÐºÐ°Ð¶",
        "Ñĥ"
      ],
      [
        "ĠÐ±",
        "ÐµÐ¶"
      ],
      [
        "ĠÐ·",
        "Ð°Ð¶"
      ],
      [
        "Ð»Ñı",
        "Ñı"
      ],
      [
        "ĠÐ³Ð¾Ð»Ð¾Ð²",
        "Ñĭ"
      ],
      [
        "ĠÐ²Ð¾ÑģÐºÐ»Ð¸Ðº",
        "Ð½ÑĥÐ»"
      ],
      [
        "ĠÑģ",
        "Ð°Ð¿"
      ],
      [
        "ĠÐ²Ð¾Ð»Ð¾Ñģ",
        "Ñĭ"
      ],
      [
        "ĠÐ½Ð°",
        "Ñħ"
      ],
      [
        "Ð¾Ð·",
        "Ð´"
      ],
      [
        "ĠÐ¿ÑĢÐ¾",
        "ÑħÐ¾Ð´"
      ],
      [
        "ĠÑĢ",
        "Ð°Ð½"
      ],
      [
        "ĠÑģÑĤ",
        "ÑĥÐ»"
      ],
      [
        "ĠÐ¾Ñĩ",
        "ÐµÐ²"
      ],
      [
        "Ðº",
        "Ð°Ð¼"
      ],
      [
        "ĠÐ¿Ð¾Ðº",
        "Ð¾Ð¹"
      ],
      [
        "Ð",
        "ķ"
      ],
      [
        "Ð¾Ð¶",
        "Ñĥ"
      ],
      [
        "ĠÐľ",
        "Ð¾Ð¶ÐµÑĤ"
      ],
      [
        "ĠÐ¾Ð¶",
        "Ð¸Ð²"
      ],
      [
        "ĠÐ¸Ð·",
        "Ð´"
      ],
      [
        "ĠÑģÐ¼",
        "ÑĥÑĤ"
      ],
      [
        "ĠÐ²ÐµÐ»",
        "Ð¸Ñĩ"
      ],
      [
        "ĠÐ¾ÑģÑĤ",
        "Ð°Ð½"
      ],
      [
        "ĠÐ½Ð°Ðº",
        "Ð»Ð¾Ð½"
      ],
      [
        "Ð",
        "Ń"
      ],
      [
        "ĠÐľÐ¸Ñħ",
        "Ð°"
      ],
      [
        "ĠÑģÑĤÑĢ",
        "Ð¾Ð³Ð¾"
      ],
      [
        "ĠÐ±ÐµÑģÐ¿",
        "Ð¾ÐºÐ¾Ð¹"
      ],
      [
        "Ð°Ð²ÑĪ",
        "Ð¸ÑģÑĮ"
      ],
      [
        "ÑĤ",
        "Ð°Ðº"
      ],
      [
        "Ð»",
        "Ð°Ðº"
      ],
      [
        "ĠÐ£",
        "Ð¶"
      ],
      [
        "ĠÑħÐ¾ÑĤ",
        "Ð¸ÑĤÐµ"
      ],
      [
        "ĠÐ³",
        "Ð°Ð·"
      ],
      [
        "ÐµÐ´",
        "Ñĥ"
      ],
      [
        "ĠÐ´ÑĢÑĥÐ³Ð¾",
        "Ðµ"
      ],
      [
        "ĠÑģÐ»",
        "Ð°Ð´"
      ],
      [
        "ÐµÐ¿",
        "ÐµÑĤ"
      ],
      [
        "ĠÐ½Ð°Ñĩ",
        "Ð°Ð»Ð°"
      ],
      [
        "ĠÐ½",
        "Ð¾Ð¶"
      ],
      [
        "ĠÐ²",
        "Ð¸Ð½"
      ],
      [
        "Ð¸Ñĩ",
        "ÐµÐ³Ð¾"
      ],
      [
        "ĠÐ¾Ð±",
        "ÑıÐ·"
      ],
      [
        "ÐµÐ·",
        "Ð°Ð¿"
      ],
      [
        "ĠÑĥÐ³",
        "Ð¾Ð»"
      ],
      [
        "ĠÐ·Ð°Ñģ",
        "Ð¼Ðµ"
      ],
      [
        "ÑĢ",
        "ÐµÐº"
      ],
      [
        "Ð°Ð½",
        "Ð½Ð¾Ðµ"
      ],
      [
        "ĠÑģ",
        "Ð¾Ð¿"
      ],
      [
        "ĠÑģÐ¿",
        "ÑĢÐ°Ð²"
      ],
      [
        "ĠÐľÐ¸ÑħÐ°Ð¹",
        "Ð»Ð¾Ð²"
      ],
      [
        "ĠÐ¿Ð¾Ðº",
        "Ð°Ð·ÑĭÐ²"
      ],
      [
        "ĠÐ",
        "©"
      ],
      [
        "Ð¾Ð»",
        "Ðº"
      ],
      [
        "Ð°Ð²ÑĪ",
        "ÐµÐ³Ð¾"
      ],
      [
        "ĠÐµÑħ",
        "Ð°ÑĤÑĮ"
      ],
      [
        "ĠÐĲÐ»ÐµÑĪ",
        "Ð°"
      ],
      [
        "Ð»",
        "ÑĭÐ¹"
      ],
      [
        "Ð°Ð½",
        "Ð¸Ð½"
      ],
      [
        "ĠÐ²Ñģ",
        "Ð»ÐµÐ´"
      ],
      [
        "ÑĥÐ¶",
        "ÐµÐ»Ð¸"
      ],
      [
        "ĠÑģÐº",
        "ÑĢ"
      ],
      [
        "ĠÐ¿ÑĢÐ¾Ð¸Ð·",
        "Ð½ÐµÑģ"
      ],
      [
        "Ð½Ð¸ÑĨ",
        "Ðµ"
      ],
      [
        "ĠÐ¾Ð±ÑĬ",
        "ÑıÐ²"
      ],
      [
        "Ñİ",
        "Ð¼"
      ],
      [
        "Ð¾Ð»ÑĮ",
        "Ð½Ð¾"
      ],
      [
        "ĠÐ¼ÑĥÐ¶",
        "Ñĩ"
      ],
      [
        "Ð",
        "ĳ"
      ],
      [
        "ÑĤ",
        "Ð°Ð»"
      ],
      [
        "Ð¾Ð½",
        "Ñĥ"
      ],
      [
        "Ð½",
        "ÐµÐ»"
      ],
      [
        "ĠÐ¼Ð¾Ð³",
        "Ð»Ð¸"
      ],
      [
        "ĠÐ¿ÑĢÐ°Ð²",
        "Ð¾"
      ],
      [
        "ĠÑĥÐ²",
        "Ð°Ð¶"
      ],
      [
        "ĠÐºÑĢ",
        "ÑĥÐ¶"
      ],
      [
        "ĠÐ¿ÐµÑĢ",
        "ÐµÐº"
      ],
      [
        "ĠÐ²Ð¾Ð·",
        "Ð±"
      ],
      [
        "Ð²ÐµÑĢ",
        "Ñħ"
      ],
      [
        "ÑģÑĤÑĢ",
        "ÐµÐ»"
      ],
      [
        "ĠÐ¿ÑĢ",
        "Ðµ"
      ],
      [
        "ĠÐŁ",
        "ÑĢÐ°Ð²"
      ],
      [
        "ĠÐ¿Ð¾ÐºÐ°Ð·",
        "Ð°Ð»Ð¾ÑģÑĮ"
      ],
      [
        "Ðµ",
        "ÐµÑĤÑģÑı"
      ],
      [
        "ĠÑĩ",
        "Ð°Ð¹"
      ],
      [
        "ĠÑĥÐ»ÑĭÐ±",
        "Ð½ÑĥÐ»ÑģÑı"
      ],
      [
        "ĠÐ½ÐµÐ²",
        "Ð¾Ð·Ð¼"
      ],
      [
        "ĠÐĲÐ½Ð´ÑĢ",
        "Ðµ"
      ],
      [
        "ĠÐ²",
        "ÑģÑĤÐ°Ð²"
      ],
      [
        "ĠÐºÐ°Ðº",
        "ÑĥÑİ"
      ],
      [
        "ĠÐ´Ð°Ð»",
        "ÐµÐºÐ¾"
      ],
      [
        "ĠÐ¿Ð¾ÑĩÑĥÐ²ÑģÑĤÐ²",
        "Ð¾Ð²Ð°Ð»"
      ],
      [
        "ĠÐ½Ð°Ð¼",
        "ÐµÑĢ"
      ],
      [
        "ĠÑģÑĤ",
        "Ð¾Ð»ÑĮ"
      ],
      [
        "ĠÐĲ",
        "ÐºÑģ"
      ],
      [
        "ĠÐ¾ÑĤÐº",
        "Ð°Ð·"
      ],
      [
        "ĠÐ±ÐµÑĢ",
        "ÐµÐ³"
      ],
      [
        "ĠÐĳÐ¾ÑĢ",
        "Ð¸Ñģ"
      ],
      [
        "ĠÐ¾Ð´",
        "Ð½Ð¸Ð¼"
      ],
      [
        "ĠÐ¶ÐµÐ½Ñī",
        "Ð¸Ð½Ñĭ"
      ],
      [
        "ĠÐ²ÐµÑĢ",
        "Ð½Ð¾"
      ],
      [
        "ĠÐ¼Ð¾Ð»Ñĩ",
        "Ð°Ð»"
      ],
      [
        "ĠÑĤ",
        "Ñı"
      ],
      [
        "ĠÐ²Ð¾Ð·Ð¼",
        "Ð¾Ð¶"
      ],
      [
        "ĠÐ´Ð¾Ð»Ð¶",
        "Ð½Ñĭ"
      ],
      [
        "ÑĥÐ¹",
        "ÑĤÐµ"
      ],
      [
        "ĠÐ¸Ð´",
        "ÐµÑĤ"
      ],
      [
        "ĠÐ»Ð¾ÑĪÐ°Ð´",
        "ÐµÐ¹"
      ],
      [
        "Ñĩ",
        "Ð°ÑĤ"
      ],
      [
        "ĠÐ½Ð°",
        "ÑģÐ»"
      ],
      [
        "ĠÐ³",
        "ÑĥÑģ"
      ],
      [
        "ĠÐ·Ð°Ð¿",
        "Ð°Ñħ"
      ],
      [
        "ĠÑģÐ°Ð¼",
        "ÑĭÐ¹"
      ],
      [
        "ĠÐ½Ð°Ñĩ",
        "Ð¸Ð½"
      ],
      [
        "ĠÐ»Ð°Ð´",
        "Ð¾Ð½"
      ],
      [
        "ĠÐ½ÐµÐ¿Ð¾Ð´",
        "Ð²Ð¸Ð¶"
      ],
      [
        "Ð¸ÑĪ",
        "ÐºÐ°"
      ],
      [
        "ĠÐ³ÑĢ",
        "ÑĥÑģÑĤ"
      ],
      [
        "ĠÐ»ÑİÐ±",
        "Ð¸ÑĤ"
      ],
      [
        "ĠÑģÐ¿",
        "Ð¾ÑģÐ¾Ð±"
      ],
      [
        "ĠÐ¿Ð»",
        "Ð¾Ñħ"
      ],
      [
        "ĠÐ¾Ð±ÑĢÐ°Ð·",
        "Ð¾Ð¼"
      ],
      [
        "Ð»",
        "Ð°Ð½"
      ],
      [
        "Ð¸ÑĢ",
        "Ð°Ñı"
      ],
      [
        "ĠÐ´ÑĥÐ¼",
        "Ð°Ð»Ð°"
      ],
      [
        "ĠÑģÐ»",
        "Ð¾Ð¶"
      ],
      [
        "ĠÑģÑĤÐ¾",
        "ÑıÐ»Ð°"
      ],
      [
        "ĠÐ¿Ð¾Ð³",
        "Ð»ÑıÐ´"
      ],
      [
        "ÑĢ",
        "Ð°Ð»"
      ],
      [
        "ĠÐ³Ð¾Ð»Ð¾Ð²",
        "Ðµ"
      ],
      [
        "ĠÐ´",
        "ÐµÐ´"
[...]
